{
  "0": "\u0000",
  "1": "\u0001",
  "2": "\u0002",
  "3": "\u0003",
  "4": "\u0004",
  "5": "\u0005",
  "6": "\u0006",
  "7": "\u0007",
  "8": "\b",
  "9": "\t",
  "10": "\n",
  "11": "\u000b",
  "12": "\f",
  "13": "\r",
  "14": "\u000e",
  "15": "\u000f",
  "16": "\u0010",
  "17": "\u0011",
  "18": "\u0012",
  "19": "\u0013",
  "20": "\u0014",
  "21": "\u0015",
  "22": "\u0016",
  "23": "\u0017",
  "24": "\u0018",
  "25": "\u0019",
  "26": "\u001a",
  "27": "\u001b",
  "28": "\u001c",
  "29": "\u001d",
  "30": "\u001e",
  "31": "\u001f",
  "32": " ",
  "33": "!",
  "34": "\"",
  "35": "#",
  "36": "$",
  "37": "%",
  "38": "&",
  "39": "'",
  "40": "(",
  "41": ")",
  "42": "*",
  "43": "+",
  "44": ",",
  "45": "-",
  "46": ".",
  "47": "/",
  "48": "0",
  "49": "1",
  "50": "2",
  "51": "3",
  "52": "4",
  "53": "5",
  "54": "6",
  "55": "7",
  "56": "8",
  "57": "9",
  "58": ":",
  "59": ";",
  "60": "<",
  "61": "=",
  "62": ">",
  "63": "?",
  "64": "@",
  "65": "A",
  "66": "B",
  "67": "C",
  "68": "D",
  "69": "E",
  "70": "F",
  "71": "G",
  "72": "H",
  "73": "I",
  "74": "J",
  "75": "K",
  "76": "L",
  "77": "M",
  "78": "N",
  "79": "O",
  "80": "P",
  "81": "Q",
  "82": "R",
  "83": "S",
  "84": "T",
  "85": "U",
  "86": "V",
  "87": "W",
  "88": "X",
  "89": "Y",
  "90": "Z",
  "91": "[",
  "92": "\\",
  "93": "]",
  "94": "^",
  "95": "_",
  "96": "`",
  "97": "a",
  "98": "b",
  "99": "c",
  "100": "d",
  "101": "e",
  "102": "f",
  "103": "g",
  "104": "h",
  "105": "i",
  "106": "j",
  "107": "k",
  "108": "l",
  "109": "m",
  "110": "n",
  "111": "o",
  "112": "p",
  "113": "q",
  "114": "r",
  "115": "s",
  "116": "t",
  "117": "u",
  "118": "v",
  "119": "w",
  "120": "x",
  "121": "y",
  "122": "z",
  "123": "{",
  "124": "|",
  "125": "}",
  "126": "~",
  "127": "",
  "128": "",
  "129": "",
  "130": "",
  "131": "",
  "132": "",
  "133": "",
  "134": "",
  "135": "",
  "136": "",
  "137": "",
  "138": "",
  "139": "",
  "140": "",
  "141": "",
  "142": "",
  "143": "",
  "144": "",
  "145": "",
  "146": "",
  "147": "",
  "148": "",
  "149": "",
  "150": "",
  "151": "",
  "152": "",
  "153": "",
  "154": "",
  "155": "",
  "156": "",
  "157": "",
  "158": "",
  "159": "",
  "160": " ",
  "161": "¡",
  "162": "¢",
  "163": "£",
  "164": "¤",
  "165": "¥",
  "166": "¦",
  "167": "§",
  "168": "¨",
  "169": "©",
  "170": "ª",
  "171": "«",
  "172": "¬",
  "173": "­",
  "174": "®",
  "175": "¯",
  "176": "°",
  "177": "±",
  "178": "²",
  "179": "³",
  "180": "´",
  "181": "µ",
  "182": "¶",
  "183": "·",
  "184": "¸",
  "185": "¹",
  "186": "º",
  "187": "»",
  "188": "¼",
  "189": "½",
  "190": "¾",
  "191": "¿",
  "192": "À",
  "193": "Á",
  "194": "Â",
  "195": "Ã",
  "196": "Ä",
  "197": "Å",
  "198": "Æ",
  "199": "Ç",
  "200": "È",
  "201": "É",
  "202": "Ê",
  "203": "Ë",
  "204": "Ì",
  "205": "Í",
  "206": "Î",
  "207": "Ï",
  "208": "Ð",
  "209": "Ñ",
  "210": "Ò",
  "211": "Ó",
  "212": "Ô",
  "213": "Õ",
  "214": "Ö",
  "215": "×",
  "216": "Ø",
  "217": "Ù",
  "218": "Ú",
  "219": "Û",
  "220": "Ü",
  "221": "Ý",
  "222": "Þ",
  "223": "ß",
  "224": "à",
  "225": "á",
  "226": "â",
  "227": "ã",
  "228": "ä",
  "229": "å",
  "230": "æ",
  "231": "ç",
  "232": "è",
  "233": "é",
  "234": "ê",
  "235": "ë",
  "236": "ì",
  "237": "í",
  "238": "î",
  "239": "ï",
  "240": "ð",
  "241": "ñ",
  "242": "ò",
  "243": "ó",
  "244": "ô",
  "245": "õ",
  "246": "ö",
  "247": "÷",
  "248": "ø",
  "249": "ù",
  "250": "ú",
  "251": "û",
  "252": "ü",
  "253": "ý",
  "254": "þ",
  "255": "ÿ",
  "256": "Ġ",
  "257": "š",
  "258": "ʾ",
  "259": "̭",
  "260": "̯",
  "261": "̱",
  "262": "ḏ",
  "263": "ḥ",
  "264": "ḫ",
  "265": "ṯ",
  "266": "ṱ",
  "267": "ẖ",
  "268": "⸗",
  "269": "ꜣ",
  "270": "ꜥ",
  "271": "ꞽ",
  "272": "𓍹",
  "273": "𓍺",
  "274": "<|endoftext|>",
  "275": "Ġ=",
  "276": "Ġn",
  "277": ".t",
  "278": "Ġꞽ",
  "279": "Ġm",
  "280": "Ġp",
  "281": "Ġs",
  "282": ".w",
  "283": "Ġḥ",
  "284": "Ġr",
  "285": "Ġ=f",
  "286": "Ġpꜣ",
  "287": "Ġw",
  "288": "Ġt",
  "289": "Ġ=k",
  "290": ".ꞽ",
  "291": "-n",
  "292": "i̯",
  "293": "Ġḏ",
  "294": "r-",
  "295": "Ġꜥ",
  "296": "Ġꞽr",
  "297": "Ġḫ",
  "298": "Ġꞽw",
  "299": "Ġḥr",
  "300": "Ġ⸗",
  "301": "-ꞽ",
  "302": "Ġtꜣ",
  "303": "Ġ(",
  "304": "Ġš",
  "305": "Ġ=w",
  "306": "Ġnꜣ",
  "307": "ty",
  "308": "Ġb",
  "309": "Ġd",
  "310": "-ḥ",
  "311": "ꞽ)",
  "312": "Ġḏd",
  "313": "PL",
  "314": "Ġẖ",
  "315": ".PL",
  "316": "Ġ=s",
  "317": "Ġnb",
  "318": "(.ꞽ",
  "319": "ṯr",
  "320": "-m",
  "321": "Ġnty",
  "322": "Ġpꜣy",
  "323": "(.ꞽ)",
  "324": "-r",
  "325": "Ġꞽm",
  "326": "w.t",
  "327": "Ġ=y",
  "328": "nḫ",
  "329": "Ġꞽn",
  "330": "Ġh",
  "331": ".ṱ",
  "332": "tw",
  "333": "y.t",
  "334": "-s",
  "335": "Ġwn",
  "336": "ꜣ.t",
  "337": "(.t",
  "338": ".n",
  "339": "-ꜥ",
  "340": "tp",
  "341": "(.t)",
  "342": "Ġz",
  "343": "Ġꜣ",
  "344": "r.t",
  "345": "Ġsꜣ",
  "346": "kꜣ",
  "347": "-p",
  "348": "sw",
  "349": "-w",
  "350": "-ḏ",
  "351": "-ꞽw",
  "352": "Ġwꜥ",
  "353": "(ꞽ)",
  "354": "Ġ⸗f",
  "355": "Ġṯ",
  "356": "Ġg",
  "357": "Ġnṯr",
  "358": "Ġ=t",
  "359": "Ġq",
  "360": "Ġ⸗k",
  "361": "bꜣ",
  "362": "Ġḥr.w",
  "363": "-ḥr",
  "364": "sꞽ",
  "365": "Ġḥm",
  "366": "r-ꜥ",
  "367": "(.w",
  "368": "-ḫ",
  "369": "Ġpꜣ-",
  "370": "Ġmtw",
  "371": "Ġꞽ.ꞽ",
  "372": "Ġdy.t",
  "373": "Ġꜥnḫ",
  "374": "ꜣ.w",
  "375": "ꜣꜥ",
  "376": "yĠn",
  "377": "(.w)",
  "378": "w)",
  "379": "Ġtw",
  "380": "r-ꜥꜣ",
  "381": "rw",
  "382": "Ġḥtp",
  "383": "Ġsn",
  "384": "Ġḥn",
  "385": "fr",
  "386": "Ġnꜣy",
  "387": "s.t",
  "388": "y)",
  "389": "ĠnĠ=k",
  "390": "Ġẖr",
  "391": "Ġmn",
  "392": ".tꞽ",
  "393": "=f",
  "394": "pr",
  "395": "swt",
  "396": "Ġ(ꞽ)",
  "397": "Ġsw",
  "398": "Ġ(n",
  "399": "Ġtꜣy",
  "400": "Ġ=fĠn",
  "401": "-nṯr",
  "402": "Ġbn",
  "403": "sꞽr",
  "404": "Ġ=fĠm",
  "405": "Ġꞽrm",
  "406": "Ġrm",
  "407": "-)",
  "408": "Ġmd",
  "409": "Ġꞽ.ꞽr",
  "410": "Ġšm",
  "411": "Ġrn",
  "412": "Ġk",
  "413": "-rꜥ",
  "414": ".tĠn",
  "415": "Ġꜥḥ",
  "416": "dy",
  "417": "Ġrmṯ",
  "418": ".y",
  "419": ".ꞽm",
  "420": "Ġsm",
  "421": "ꜣy",
  "422": "Ġpr",
  "423": "Ġḫr",
  "424": ".wĠn",
  "425": "i̯.t",
  "426": "Ġmr",
  "427": "Ġḫn",
  "428": "-nb",
  "429": "Ġkꜣ",
  "430": "(n",
  "431": "Ġst",
  "432": "Ġsẖ",
  "433": "-ꞽr",
  "434": "(w)",
  "435": "ḏꜣ",
  "436": "Ġm-",
  "437": "Ġḫpr",
  "438": "-nswt",
  "439": "i̯.n",
  "440": "Ġ=fĠr",
  "441": "Ġẖn",
  "442": "ꜣ)",
  "443": "-t",
  "444": "Ġsḏ",
  "445": "Ġwꜣ",
  "446": "(y)",
  "447": "Ġ=ꞽ",
  "448": "Ġnty-ꞽw",
  "449": "ĠnĠpꜣ",
  "450": "r-ḥ",
  "451": "Ġ(n)",
  "452": "Ġḫꜣ",
  "453": "mn",
  "454": "ꞽs",
  "455": "Ġwꜥb",
  "456": "Ġꞽt",
  "457": ".tĠm",
  "458": "Ġpw",
  "459": "Ġzꜣ",
  "460": "Ġwnꞽs",
  "461": "Ġpꜣ-dy",
  "462": "Ġn(.ꞽ)",
  "463": "Ġḥꜣ",
  "464": "Ġꜥꜣ",
  "465": "Ġ⸗ꞽ",
  "466": "Ġsḥ",
  "467": "(n-)",
  "468": "Ġꞽ:",
  "469": "Ġsḫ",
  "470": "Ġmꜣꜥ",
  "471": "ĠnĠ=f",
  "472": "Ġn.ꞽm",
  "473": "Ġbw",
  "474": "Ġꜥḥꜥ",
  "475": "-rʾ",
  "476": "Ġꞽmn",
  "477": "DU",
  "478": "ṯr-ꜥꜣ",
  "479": "Ġꞽy",
  "480": "Ġḥnꜥ",
  "481": "Ġwsꞽr",
  "482": "-nfr",
  "483": ".DU",
  "484": "-š",
  "485": "-ẖ",
  "486": "Ġꞽb",
  "487": "-kꜣ",
  "488": "n.w",
  "489": "ĠꞽwĠ=f",
  "490": "Ġdy",
  "491": ".r",
  "492": "Ġwr",
  "493": "Ġḥr-",
  "494": "Ġpn",
  "495": "m.t",
  "496": "-(n-)",
  "497": "ĠpꜣyĠ=f",
  "498": "-ꜣ",
  "499": "bꜣḥ",
  "500": "Ġ=kĠm",
  "501": "-rꜥw",
  "502": "Ġsp",
  "503": "Ġ=(y)",
  "504": "ĠpꜣĠnty",
  "505": "tꞽ",
  "506": ".wy",
  "507": "fr-",
  "508": "sr",
  "509": "r)",
  "510": "-z",
  "511": "Ġmy",
  "512": "Ġmw.t",
  "513": "Ġ=n",
  "514": "Ġꞽri̯",
  "515": "Ġrḫ",
  "516": "Ġꜥš",
  "517": "Ġ(ꞽ)m",
  "518": "Ġmḥ",
  "519": "Ġnṯr-ꜥꜣ",
  "520": "Ġḥtp-ḏ",
  "521": "Ġ=sn",
  "522": "tr",
  "523": "Ġnfr",
  "524": "py",
  "525": "Ġms",
  "526": "Ġm-bꜣḥ",
  "527": "-b",
  "528": "Ġ⸗s",
  "529": "=w",
  "530": "Ġ=kĠr",
  "531": "Ġ=kĠn",
  "532": "Ġbꜣ",
  "533": "Ġhꜣ",
  "534": "Ġsḏm",
  "535": "dw",
  "536": "Ġꜥn",
  "537": "Ġtp",
  "538": "-sꜣ",
  "539": "Ġnb.t",
  "540": "tm",
  "541": "Ġgm",
  "542": "Ġrꜥ",
  "543": "Ġ(ꞽ)m(.ꞽ)",
  "544": "-ꞽb",
  "545": "Ġpa",
  "546": "Ġšs",
  "547": "Ġꞽꜣ",
  "548": "-pw",
  "549": ".w.PL",
  "550": "Ġḫnt",
  "551": "-ꜥnḫ",
  "552": "Ġmw",
  "553": "Ġšꜥ",
  "554": "Ġwꜣḥ",
  "555": "Ġmd.t",
  "556": "Ġpr-ꜥꜣ",
  "557": "Ġ(r)",
  "558": ".ꞽn",
  "559": "ꜣḫ",
  "560": "Ġṯw",
  "561": "Ġby",
  "562": "my",
  "563": "Ġꞽr.t",
  "564": "Ġḥtp-ḏi̯",
  "565": "Ġ(w)",
  "566": "(ꜣ)",
  "567": "-ꞽmn",
  "568": "Ġḏr",
  "569": "Ġm-ꞽr",
  "570": "ẖꜣ.w",
  "571": "Ġbn-pw",
  "572": "Ġšn",
  "573": "r-w",
  "574": "Ġmꞽ",
  "575": "ĠmtwĠ=k",
  "576": "Ġnḥ",
  "577": "Ġsš",
  "578": "Ġwp",
  "579": "ḫ.t",
  "580": "Ġta",
  "581": "-ꜥꜣ",
  "582": "Ġ(ꞽ)m(.ꞽ)-rʾ",
  "583": "Ġ=wĠn",
  "584": "Ġḥs",
  "585": "ĠrĠpꜣ",
  "586": "Ġr.r",
  "587": "h̭",
  "588": "p.w",
  "589": "Ġpḥ",
  "590": "-2",
  "591": "-mdw",
  "592": "ĠnꜣyĠ=f",
  "593": "Ġ(ꞽ)r",
  "594": "Ġtm",
  "595": "ḏ.t",
  "596": "wi̯",
  "597": "-ḫrw",
  "598": "ĠnꜣĠnṯr",
  "599": "d.t",
  "600": "-ḥtp",
  "601": "r-ꞽ",
  "602": "Ġṯꜣy",
  "603": "=ꞽ)",
  "604": "tḥ",
  "605": "Ġbn-ꞽw",
  "606": "Ġnn",
  "607": "Ġsb",
  "608": "nw",
  "609": "Ġmꜣ",
  "610": "ĠḏdĠn",
  "611": "nb",
  "612": "Ġḏ(",
  "613": "d)",
  "614": "-nṯ",
  "615": "ĠꞽwĠ=w",
  "616": "Ġgr",
  "617": "Ġm-sꜣ",
  "618": "n.t",
  "619": "Ġ=ṯ",
  "620": "Ġdn",
  "621": "r-ḥr",
  "622": "Ġḏ(d)",
  "623": "Ġḏ(d)-mdw",
  "624": "(=ꞽ)",
  "625": "ḫt",
  "626": "Ġḥꜣ.t",
  "627": "-ꜣs.t",
  "628": "r-r",
  "629": "-ḥry",
  "630": "Ġꜣs.t",
  "631": "Ġꜥ.wy",
  "632": "Ġ(=",
  "633": "Ġḥꜣty",
  "634": "Ġꞽmꜣḫ",
  "635": "-pr",
  "636": "Ġ(n-)",
  "637": "Ġ(=y)",
  "638": "-tꜣ",
  "639": "-mn",
  "640": "Ġḏ.t",
  "641": "ĠnꜣĠnṯr.w",
  "642": "Ġḏḥ",
  "643": "fr-kꜣ",
  "644": "-ḥr.w",
  "645": "ĠpꜣĠnṯr-ꜥꜣ",
  "646": "Ġdw",
  "647": "Ġrʾ",
  "648": "-ꞽ)",
  "649": ".ṱĠ=f",
  "650": "Ġšr",
  "651": "wĠn",
  "652": "Ġꜥḥꜣ",
  "653": "Ġḥry",
  "654": "Ġꞽs",
  "655": "Ġrḏ",
  "656": "Ġzẖꜣ.w",
  "657": "m.w",
  "658": "Ġf",
  "659": "d.ṱ",
  "660": "Ġꞽ.ꞽr-ḥr",
  "661": "Ġ=tn",
  "662": "ĠꞽrĠ=f",
  "663": "ḏꜣ-s",
  "664": "Ġhb",
  "665": "Ġpꜣ-š",
  "666": "-wr",
  "667": "sy",
  "668": "Ġꞽnk",
  "669": "Ġ(ꞽ)r(.ꞽ",
  "670": "Ġn(ꞽ)",
  "671": "Ġṯꜣ",
  "672": "Ġḥ.t",
  "673": "pyĠn",
  "674": "Ġnswt",
  "675": "ĠꞽwĠ=y",
  "676": "Ġwy",
  "677": "Ġbw-ꞽr",
  "678": "Ġ(w)sr",
  "679": "Ġ(w)sr(.w)",
  "680": "fr-kꜣ-rꜥw",
  "681": "mꜥ",
  "682": "ꞽr",
  "683": "Ġnw",
  "684": "Ġqꜣ",
  "685": "ḥ.w",
  "686": "ĠpꜣyĠ=k",
  "687": ".tĠ=f",
  "688": "Ġnṯr.PL",
  "689": "Ġpri̯",
  "690": "ĠnĠtꜣ",
  "691": "ĠppyĠn",
  "692": "ĠppyĠnfr-kꜣ-rꜥw",
  "693": "-wsꞽr",
  "694": "Ġꜣḫ",
  "695": "Ġmd(.t)",
  "696": "Ġḥr.wĠꜥḥꜣ",
  "697": "ĠtꜣyĠ=f",
  "698": "Ġ(s",
  "699": "s.w",
  "700": "Ġḫꜣꜥ",
  "701": "ḫ(.t)",
  "702": "Ġḏi̯",
  "703": "šꜥ",
  "704": "ĠpꜣyĠ=(y)",
  "705": "Ġṱ",
  "706": "Ġy",
  "707": "tꜣ",
  "708": ".t.PL",
  "709": "-h",
  "710": "Ġꜥnḫ-w",
  "711": "ĠꞽrĠ=w",
  "712": "Ġꞽp",
  "713": "Ġ(sꜣ)",
  "714": "Ġl",
  "715": "Ġsr",
  "716": "Ġrꜥw",
  "717": "r-m",
  "718": "Ġḥw",
  "719": "ḏꜣ-snb",
  "720": "Ġḥw.t",
  "721": "(w)t",
  "722": "Ġšsp",
  "723": "Ġhy",
  "724": "Ġps",
  "725": "Ġrd",
  "726": "-ꞽ)ḫ(.t)",
  "727": "Ġꜥq",
  "728": "Ġꞽ.ꞽrĠ=k",
  "729": "ĠpꜣĠm",
  "730": "Ġtʾ",
  "731": "Ġꞽnp.w",
  "732": "wty",
  "733": "Ġꜥnḫ-wḏꜣ-snb",
  "734": ".wt",
  "735": "Ġp.t",
  "736": "nĠn",
  "737": "ry",
  "738": "Ġmnḫ",
  "739": "Ġsp-2",
  "740": "ṯꜣ",
  "741": "ĠrĠdy.t",
  "742": "Ġwš",
  "743": "̱n",
  "744": "Ġḥm-nṯ",
  "745": "bs",
  "746": "Ġr-ẖ",
  "747": "Ġꞽm(.ꞽ)",
  "748": "Ġnḏ",
  "749": "Ġḫꜥ",
  "750": "Ġꞽm.ꞽ",
  "751": "Ġbꜣk",
  "752": "ḥr",
  "753": "-ꞽ)ḫ(.t)-nswt",
  "754": "ꞽ.t",
  "755": "Ġḥḏ",
  "756": "r-s",
  "757": "-(n-)ḥ",
  "758": "t.ꞽ",
  "759": "Ġḏꜣ",
  "760": "-ḫn",
  "761": "q.t",
  "762": "Ġs.t",
  "763": "Ġsḥm.t",
  "764": "tĠn",
  "765": "fr.t",
  "766": "bn",
  "767": "mꜣ",
  "768": "Ġky",
  "769": "Ġ=fĠs",
  "770": "r-ḫ",
  "771": "-pꜣ",
  "772": "e.t",
  "773": "-nsw",
  "774": "Ġhrw",
  "775": "Ġwḏ",
  "776": "Ġḥr.ꞽ",
  "777": "hrw",
  "778": "-tꜣ.w",
  "779": "Ġh̭",
  "780": "Ġmw.tĠ=f",
  "781": "rĠn",
  "782": "ĠsꜣĠpꜣ-dy",
  "783": "ĠmtwĠ=f",
  "784": "-(n-)ḥp",
  "785": "Ġwḏꜣ",
  "786": "p.t",
  "787": "Ġꞽmꜣḫ.w",
  "788": "Ġns",
  "789": "-rn",
  "790": "Ġn.tꞽ",
  "791": "r.w",
  "792": "Ġ⸗st",
  "793": "ꜥb",
  "794": "ꞽꜣ",
  "795": "Ġḫnt.ꞽ",
  "796": "ĠꞽwĠ=k",
  "797": "ĠpꜣĠnty-ꞽw",
  "798": ".t(ꞽ)",
  "799": "Ġnꜣ.w",
  "800": "Ġ⸗sn",
  "801": "Ġ=wĠr",
  "802": "Ġḥm.t",
  "803": "Ġḥꜥ",
  "804": "-sš",
  "805": "Ġnm",
  "806": "Ġwꜥ.t",
  "807": "Ġꜣb",
  "808": "wꞽ",
  "809": "ĠꞽwĠ=s",
  "810": "ĠtꜣĠm",
  "811": "Ġẖr.ꞽ",
  "812": "-ḏd",
  "813": "Ġsḥḏ",
  "814": "-zꜣ",
  "815": "Ġḥq",
  "816": "Ġwr.t",
  "817": "ĠwnꞽsĠpn",
  "818": "=s",
  "819": "Ġꞽḫ",
  "820": "Ġgb",
  "821": "zw",
  "822": "i̯Ġ=k",
  "823": "Ġḫs",
  "824": "ꜥḥ",
  "825": "ĠpꜣĠnṯr",
  "826": "Ġ1",
  "827": "Ġn.ꞽmĠ=f",
  "828": "Ġḥtp-ḏi̯Ġnswt",
  "829": "ḫꜣ",
  "830": "-ḏr",
  "831": "Ġwnm",
  "832": "ĠnĠ=y",
  "833": "Ġnty-ḥry",
  "834": "-ḏbꜣ",
  "835": ".yt",
  "836": "ĠḥrĠpꜣ",
  "837": "ꜣ.tĠn",
  "838": "(m",
  "839": "sꜣ",
  "840": "Ġḫtm",
  "841": "Ġꞽḥ",
  "842": "rn",
  "843": "Ġ=wĠs",
  "844": "Ġḫrp",
  "845": "Ġḥꜣty.ṱ",
  "846": "w.tꞽ",
  "847": "Ġḫf",
  "848": "ĠꞽwĠ⸗f",
  "849": "ḫt.ṱ",
  "850": "(ꜣ)b",
  "851": "Ġsbk",
  "852": "pꜣ",
  "853": "-mtw",
  "854": "Ġqr",
  "855": "Ġttꞽ",
  "856": "Ġpꜣ-hrw",
  "857": "Ġꜣp",
  "858": "Ġšms",
  "859": "st",
  "860": "-tꜣ.wy",
  "861": "bḥ",
  "862": "-ptḥ",
  "863": "kr",
  "864": ".wꞽ",
  "865": "Ġqs",
  "866": "Ġnḥḥ",
  "867": "ĠtwĠ=y",
  "868": "ĠnꜣyĠ=w",
  "869": "Ġẖrd.ṱ",
  "870": "Ġḫrw",
  "871": ".ḥr",
  "872": "Ġḏḥwty",
  "873": "kt",
  "874": "r-)",
  "875": "Ġsy",
  "876": "Ġmꜣꜥ-ḫrw",
  "877": "Ġḏr.t",
  "878": "Ġn(ꞽ).t",
  "879": "Ġ=ṯn",
  "880": "-q",
  "881": "Ġmꜣꜥ.t",
  "882": "Ġšmꜥ",
  "883": "Ġ⸗tw",
  "884": "Ġsšm",
  "885": "Ġwd",
  "886": "ĠrnĠ=k",
  "887": "Ġšw",
  "888": "Ġwꜣḏ",
  "889": "Ġsḫm",
  "890": "-ḫpr",
  "891": "-ḏr.t",
  "892": "Ġ(r-)",
  "893": "Ġtwtw",
  "894": "Ġḥtp-ḏi̯ĠnswtĠḥtp-ḏi̯",
  "895": ".nĠ=f",
  "896": "ḫr",
  "897": "ĠpꜣyĠ=s",
  "898": "ne",
  "899": "Ġꞽri̯.t",
  "900": "Ġꞽni̯",
  "901": "Ġḫm",
  "902": "-bꜣ",
  "903": ".wĠm",
  "904": "Ġdny.t",
  "905": "r-n",
  "906": "Ġrw",
  "907": "-ḫt",
  "908": "Ġwsꞽ",
  "909": "Ġ1/",
  "910": "ĠnĠpꜣĠtꜣ",
  "911": "Ġn.ꞽmĠ=s",
  "912": "Ġ(ꞽ)r(.ꞽ-ꞽ)ḫ(.t)-nswt",
  "913": "Ġsk",
  "914": "Ġwn.ꞽn",
  "915": "ĠrĠtꜣ",
  "916": "Ġꞽry",
  "917": "-nꜣ.w",
  "918": "-ḥꜣ.t",
  "919": "Ġꜥḥꜥ.n",
  "920": "(n)",
  "921": "Ġrꜣ",
  "922": "Ġr.rĠ=f",
  "923": "lw",
  "924": "Ġḫp",
  "925": "Ġḥms",
  "926": "Ġnh",
  "927": "i̯.nĠ=f",
  "928": "Ġn.ꞽmĠ=w",
  "929": "Ġwꜥb.w",
  "930": "ꜣ~",
  "931": "ĠpꜣyĠ=w",
  "932": "Ġqd",
  "933": "Ġ⸗w",
  "934": "Ġḫnt(.ꞽ)",
  "935": "i̯.y",
  "936": "Ġḥꜣ.tꞽ",
  "937": "ĠmtwĠ=w",
  "938": "Ġḫsf",
  "939": "-bn",
  "940": "nḏ",
  "941": "Ġḥm-kꜣ",
  "942": "Ġws",
  "943": "Ġwḫꜣ",
  "944": "-pr-ꜥꜣ",
  "945": "Ġpꜣ-dy-ꜣs.t",
  "946": "t)",
  "947": "Ġꞽꜣb",
  "948": "Ġnb.t-pr",
  "949": "sn",
  "950": "Ġꞽh",
  "951": "ĠnĠnꜣ",
  "952": "Ġꞽr(.t)",
  "953": "ꜣ.t.PL",
  "954": "Ġtꜣ-š",
  "955": "ĠḏdĠnĠ=f",
  "956": "-m-ḥtp",
  "957": "ĠwnꞽsĠm",
  "958": "-ḥw.t",
  "959": "-zḥ",
  "960": ".ḫr",
  "961": "-ẖn",
  "962": "ĠsꜣĠpa",
  "963": "Ġḥtp-ḏi̯ĠnswtĠḥtp-ḏi̯Ġꞽnp.w",
  "964": "Ġꞽyi̯",
  "965": "Ġšp",
  "966": "ḏr",
  "967": "Ġḥm-nṯr-",
  "968": "Ġnṯr(.ꞽ)",
  "969": ".ꞽr",
  "970": "Ġꜣpd",
  "971": "Ġꜥr",
  "972": "Ġ=fĠꞽw",
  "973": "Ġzꜣ.t",
  "974": "ĠmtwĠ=y",
  "975": "Ġḥnq.t",
  "976": "(m)",
  "977": "-tp",
  "978": "Ġpš",
  "979": "Ġwḥ",
  "980": "ny",
  "981": "Ġrmṯ.w",
  "982": "ĠnĠ⸗k",
  "983": "Ġn.ꞽ",
  "984": "-bꞽ",
  "985": "Ġꞽṯ",
  "986": "Ġḥr.wĠdn",
  "987": "Ġ(w)sꞽr",
  "988": "Ġšd",
  "989": "-mꜣꜥ",
  "990": "-mr",
  "991": "ꞽw",
  "992": "Ġpẖ",
  "993": "Ġḥp",
  "994": "Ġwb",
  "995": "Ġsꜥ",
  "996": "Ġpꜣ-rꜥ",
  "997": "Ġ(n-)rn",
  "998": "ĠsꜣĠpꜣ",
  "999": "Ġkmy",
  "1000": "bꜥ",
  "1001": "Ġwt",
  "1002": "Ġr-ḥry",
  "1003": "yĠn.ꞽm",
  "1004": "Ġpr.t",
  "1005": "Ġ⸗fĠm",
  "1006": "Ġtw⸗",
  "1007": "ꜣb",
  "1008": "Ġtš",
  "1009": "Ġwnn",
  "1010": "Ġsmr-w",
  "1011": "Ġsmr-wꜥ",
  "1012": "Ġꞽmꜣḫ.w-ḫ",
  "1013": "r-wr",
  "1014": "ĠḏdĠ=f",
  "1015": "Ġqn",
  "1016": "Ġr-ꞽw",
  "1017": "Ġr.ḥr",
  "1018": "ḥ.t",
  "1019": "Ġmtr",
  "1020": "ĠḥrĠḏdĠn",
  "1021": "r-rḫ",
  "1022": "ĠꞽrmĠpꜣ",
  "1023": "Ġdwꜣ.t",
  "1024": "Ġpsḏ.t",
  "1025": ".(w)t",
  "1026": "Ġbn-pwĠ=y",
  "1027": "ĠḥrĠ=k",
  "1028": "=fĠmr",
  "1029": "Ġꜥḏ",
  "1030": "-nꜣ",
  "1031": "Ġḫnṱ",
  "1032": "ĠꞽrmĠnꜣ",
  "1033": ".k",
  "1034": "(.t)Ġn",
  "1035": "Ġsḏr",
  "1036": "Ġḥm-nṯr",
  "1037": "Ġnkt",
  "1038": "Ġ(r-)ḏ",
  "1039": "ĠtwĠ=f",
  "1040": "Ġẖ.t",
  "1041": "ĠzꜣĠ=f",
  "1042": "Ġ=fĠmr",
  "1043": "Ġ(ꞽ)ḫ.t",
  "1044": ".PLĠn",
  "1045": "Ġḏd.ꞽn",
  "1046": "nꜣ",
  "1047": "ꞽrʾ",
  "1048": "Ġꞽt-nṯr",
  "1049": "Ġ=sĠn",
  "1050": "-ḥm",
  "1051": "Ġšz",
  "1052": "-bꞽ.tꞽ",
  "1053": "Ġgrḥ",
  "1054": "Ġꞽri̯.n",
  "1055": "y.w",
  "1056": "Ġ(r-)ḏbꜣ",
  "1057": "Ġzp",
  "1058": "i̯Ġ⸗k",
  "1059": "Ġꞽm.ꞽ-rʾ",
  "1060": "-zḥ-nṯr",
  "1061": "r-ḥḏ",
  "1062": ".n-rꜥw",
  "1063": "d.w",
  "1064": "-ḥp",
  "1065": "Ġpꜣ-šr-",
  "1066": "Ġr.ꞽn",
  "1067": "Ġdwꜣ",
  "1068": "Ġptḥ",
  "1069": "-m-zꜣ",
  "1070": "Ġꞽ:ꞽr",
  "1071": "ĠtꜣyĠ=k",
  "1072": "ꞽĠm",
  "1073": "Ġꞽrp",
  "1074": "db",
  "1075": "-g",
  "1076": "Ġḫt",
  "1077": "-(n-)ḥp-wsꞽr",
  "1078": "Ġrḏi̯",
  "1079": "Ġḥꜣb",
  "1080": "Ġnṯr-ꜥꜣĠnb",
  "1081": "ĠnĠ=t",
  "1082": "Ġẖrd.ṱ.w",
  "1083": "-zẖꜣ.w",
  "1084": "-nb=f",
  "1085": "Ġnꜥ",
  "1086": "Ġdm",
  "1087": "Ġꞽt(ꞽ)",
  "1088": "Ġth",
  "1089": "ĠpꜣĠrmṯ",
  "1090": "Ġꞽt.ṱ",
  "1091": "Ġkꜣ(=ꞽ)",
  "1092": ".ṱĠ=k",
  "1093": ".DUĠ=f",
  "1094": "Ġẖr(.ꞽ)",
  "1095": "Ġḥqꜣ",
  "1096": "Ġsmr-wꜥ.tꞽ",
  "1097": "Ġ=kĠꞽm",
  "1098": "-nn",
  "1099": "šm",
  "1100": "t.ꞽ-m-zꜣ",
  "1101": "t.ꞽ-m-zꜣ=fĠmr",
  "1102": "t.ꞽ-m-zꜣ=fĠmr.n-rꜥw",
  "1103": "Ġꞽw=f",
  "1104": "-ẖ.t",
  "1105": "ĠnbĠnty",
  "1106": "Ġsṯ",
  "1107": "Ġꜥw",
  "1108": "Ġsf",
  "1109": "Ġppy",
  "1110": "-rḫ",
  "1111": "Ġgbb",
  "1112": "qr",
  "1113": "Ġḥr-w",
  "1114": "Ġ=fĠḏd",
  "1115": "Ġḥm-nṯr-(n-)",
  "1116": "Ġnty-ꞽwĠ=w",
  "1117": "ĠnꜣyĠ=k",
  "1118": "u̯",
  "1119": "wi̯=f",
  "1120": "Ġpr-",
  "1121": "Ġwbꜣ",
  "1122": "Ġmꜥ",
  "1123": "Ġhp",
  "1124": "ĠpꜣyĠ(=y)",
  "1125": "Ġ(ꞽ)r(.ꞽt",
  "1126": "b.t",
  "1127": "Ġḫft",
  "1128": "Ġḏḥw.tꞽ",
  "1129": "Ġtp.ꞽ",
  "1130": "Ġꞽwi̯",
  "1131": "ĠꞽrĠ=k",
  "1132": "Ġm-ꞽri̯",
  "1133": "-bnr",
  "1134": "Ġfy",
  "1135": "Ġtꜣ-šr.t",
  "1136": "-ꜥꜣ.t",
  "1137": "(t)",
  "1138": "-ꞽmnṱ",
  "1139": "Ġꞽr(.t)-ḥr.w",
  "1140": "Ġgrg",
  "1141": "Ġmt",
  "1142": "Ġḏi̯.t",
  "1143": "Ġby-(n-)ḥp-wsꞽr",
  "1144": "ĠꞽnĠ=w",
  "1145": "sĠn",
  "1146": "Ġšzp",
  "1147": "-kꜣ(=ꞽ)",
  "1148": "Ġm(w)t",
  "1149": "-ꞽm",
  "1150": "Ġqꜣ-ꜥ",
  "1151": "Ġḥr.wĠḏr",
  "1152": "ĠnꜣĠwꜥb.w",
  "1153": "ṱĠn",
  "1154": "Ġsnḏ",
  "1155": "r-nṯr-ꜥꜣ",
  "1156": "Ġꞽnp",
  "1157": "-k",
  "1158": "-sw",
  "1159": "-mw",
  "1160": "Ġsṯꜣ",
  "1161": "Ġḏd-ḥr",
  "1162": "Ġnw.t",
  "1163": "-ḥ(ꜣ)b",
  "1164": "Ġ=fĠḥr",
  "1165": "Ġꞽz",
  "1166": "-nṯr.w",
  "1167": "Ġḥbs",
  "1168": "Ġꞽri̯.y",
  "1169": "rʾ",
  "1170": "ḏr.t",
  "1171": "Ġ(r)Ġdy.t",
  "1172": "ĠšꜥĠḏ.t",
  "1173": "ĠpꜣĠmr-",
  "1174": "Ġs(ꞽ)",
  "1175": "Ġꞽwꜣ",
  "1176": "Ġ=tĠr",
  "1177": "Ġḫnt.ꞽ-zḥ-nṯr",
  "1178": "-wꜣ",
  "1179": "bk",
  "1180": "ĠpꜣĠẖ",
  "1181": "Ġsšm-nfr",
  "1182": "-sštꜣ",
  "1183": "Ġmnḫ.t",
  "1184": "Ġwpi̯",
  "1185": "r-ḫrw",
  "1186": ".PLĠm",
  "1187": "ḫb",
  "1188": "-tw",
  "1189": "t.ṱ",
  "1190": "Ġꞽy-m-ḥtp",
  "1191": "Ġmꜣꜣ",
  "1192": "-nzw",
  "1193": "Ġn(ꞽ).tĠm",
  "1194": "Ġsmꜣ",
  "1195": "st.t",
  "1196": "-ḫnsw",
  "1197": "h̭y",
  "1198": "Ġstš",
  "1199": "Ġm-ẖ",
  "1200": "-ẖnm.w",
  "1201": "Ġpr-ḫrw",
  "1202": "wĠm",
  "1203": "Ġswr",
  "1204": "tn",
  "1205": "ĠsꜣĠḥr",
  "1206": "ĠpꜣĠsẖ",
  "1207": "ĠpꜣĠḥry",
  "1208": ".tt",
  "1209": "wi̯=f-w",
  "1210": "Ġgs",
  "1211": "Ġḥtp-ḏꞽ",
  "1212": "ĠnbĠꜥꜣ",
  "1213": "trꞽ",
  "1214": "ĠnbĠnĠpꜣĠtꜣ",
  "1215": "-ḥr-",
  "1216": "Ġmnt",
  "1217": "ꜥr",
  "1218": "Ġšy",
  "1219": "~ꞽrʾ",
  "1220": "ĠmtwĠ=kĠdy.t",
  "1221": "Ġḥr(.ꞽ)",
  "1222": "Ġstẖ",
  "1223": "-ḫnt",
  "1224": "i̯.w",
  "1225": "Ġnmt.ꞽ-m-zꜣ=fĠmr.n-rꜥw",
  "1226": "-(ꞽ)",
  "1227": "Ġꞽn.w",
  "1228": "Ġsḥn",
  "1229": "ĠpꜣyĠ⸗f",
  "1230": "ĠẖnĠnꜣ",
  "1231": "Ġṯꜣw",
  "1232": "Ġꜥb",
  "1233": "-ẖr",
  "1234": "r-ḥp",
  "1235": "ĠpꜣĠꜥ",
  "1236": "Ġwn-nfr",
  "1237": "Ġtꜣy=w",
  "1238": "Ġ=kĠꞽr",
  "1239": "ĠswĠm",
  "1240": "-nfr.t",
  "1241": "Ġ=fĠꞽr",
  "1242": "Ġḏbꜥ",
  "1243": "nn",
  "1244": "ꞽĠn",
  "1245": "-ꞽn",
  "1246": "ĠꞽwĠwn",
  "1247": "ĠḏrĠ=w",
  "1248": "Ġby-(n-)ḥp-wsꞽrĠsḏm",
  "1249": "Ġstne",
  "1250": "ĠꞽwĠmn",
  "1251": "Ġꜣḫ.t",
  "1252": "Ġzꜣb",
  "1253": "Ġqb",
  "1254": "Ġnṯr.t",
  "1255": "Ġtꜣy=w-ḏ",
  "1256": "-šmꜥ",
  "1257": "Ġsbꜣ",
  "1258": "-wr.t",
  "1259": "-n(=ꞽ)",
  "1260": "-nfr-",
  "1261": "Ġmšꜥ",
  "1262": "ĠrĠꞽr",
  "1263": "ĠꞽwĠ⸗fĠḥr",
  "1264": "ĠpꜣyĠ⸗ꞽ",
  "1265": "ĠpꜣyĠ=t",
  "1266": "Ġrsy",
  "1267": "Ġḥ.t-nṯr",
  "1268": "Ġrḏi̯.n",
  "1269": "gꜣ",
  "1270": "Ġnfr-",
  "1271": "Ġsd",
  "1272": "Ġṯwt",
  "1273": "Ġꞽ:ḏ",
  "1274": "ll",
  "1275": "Ġḥr-wḏꜣ",
  "1276": "Ġpy",
  "1277": "-ḥm(.w)",
  "1278": "Ġbꞽ",
  "1279": ".(ꞽ)",
  "1280": "-ṯ",
  "1281": "šn",
  "1282": "fr-ḥ",
  "1283": "Ġḥb",
  "1284": "Ġwbn.w",
  "1285": "Ġšmꜥ.w",
  "1286": "ĠḏdĠ=fĠn",
  "1287": "ĠrnĠ=f",
  "1288": "Ġḥr-sꜣ",
  "1289": ".ṱĠ⸗f",
  "1290": "Ġḫnṱ-ꞽmnṱ",
  "1291": "Ġꞽmnṱ",
  "1292": "Ġḏn",
  "1293": "Ġḫtm.w",
  "1294": "Ġkm",
  "1295": "wr",
  "1296": "-sḥ",
  "1297": "-ꞽbt",
  "1298": "Ġm-ꞽrĠdy.t",
  "1299": "-(n-)ḥp-ꜥnḫ",
  "1300": "Ġbn-pwĠ=w",
  "1301": "Ġ=kĠḥr",
  "1302": "Ġšf",
  "1303": "Ġtn",
  "1304": "Ġꞽni̯.t",
  "1305": "-ḏsr",
  "1306": "Ġẖn",
  "1307": "ḫm",
  "1308": "ḥĠn",
  "1309": "Ġrs",
  "1310": "šs",
  "1311": "~n",
  "1312": "Ġnḫt.ṱ",
  "1313": "ĠnꜣĠnty",
  "1314": "Ġrpy",
  "1315": "Ġṯn",
  "1316": "Ġsꞽ",
  "1317": "Ġḥr.wĠqꜣ-ꜥ",
  "1318": ".tꞽĠm",
  "1319": "Ġsq",
  "1320": "ꜥm",
  "1321": "~rʾ",
  "1322": "ĠtꜣyĠ=fĠḥm.t",
  "1323": "ĠdyĠ=f",
  "1324": "Ġꜥy",
  "1325": "ĠrĠ=f",
  "1326": "Ġ(w)sr(.w)Ġn(ꞽ).tĠm",
  "1327": "Ġꜥšꜣ",
  "1328": "-ꜥn",
  "1329": "Ġdmy",
  "1330": "yĠpꜣ",
  "1331": "ĠmtwĠ=t",
  "1332": "ĠdyĠ=w",
  "1333": "bw",
  "1334": "bĠn",
  "1335": "-tꜣy",
  "1336": "i̯Ġ=f",
  "1337": "Ġrꜥw-nb",
  "1338": "Ġsms.w",
  "1339": "Ġḫꜣs.t",
  "1340": "Ġzꞽ",
  "1341": "Ġpf",
  "1342": "-ḥw",
  "1343": "Ġk.t",
  "1344": "Ġẖ",
  "1345": "ĠtꜣĠs",
  "1346": "ꜣ.tꞽ",
  "1347": "ḫn",
  "1348": "-wn",
  "1349": "-ꞽy",
  "1350": "Ġ⸗kĠr",
  "1351": "ĠꞽrmĠnꜣĠnṯr.w",
  "1352": "Ġr-ẖn",
  "1353": "Ġ=yĠn",
  "1354": "Ġtꜣy=w-ḏy",
  "1355": "Ġꞽw=f-ḫpr",
  "1356": "Ġpri̯Ġm",
  "1357": "Ġṯz",
  "1358": "qn",
  "1359": "Ġpẖr",
  "1360": "Ġsḫ.t",
  "1361": "Ġꞽwṱ",
  "1362": "Ġ(n-)ḏr.t",
  "1363": "Ġnty-nb",
  "1364": "di̯",
  "1365": ".nĠ=ꞽ",
  "1366": "Ġnb(.t)",
  "1367": "fr-ḥtp",
  "1368": "Ġ=sĠr",
  "1369": "Ġ(n)Ġpꜣ",
  "1370": "Ġꜣr",
  "1371": "Ġmꜣꜥ-rꜥ",
  "1372": "ĠnꜣyĠ=(y)",
  "1373": "Ġnty-ꞽwĠ=y",
  "1374": "Ġby-(n-)ḥp-wsꞽrĠsḏm-(n-)ḥp-ꜥnḫ",
  "1375": ".PLĠ=f",
  "1376": "Ġḥtp-ḏi̯ĠnswtĠḥtp-ḏi̯Ġꞽnp.wĠḫnt.ꞽ-zḥ-nṯr",
  "1377": ".PLĠ=k",
  "1378": "Ġḥꜣ.tꞽ-ꜥ",
  "1379": "ĠtʾĠḫꜣ",
  "1380": "ĠrnĠ=kĠn(.ꞽ)",
  "1381": "-tꜣ-ḏsr",
  "1382": "(r)",
  "1383": "ĠnĠ=fĠm",
  "1384": "Ġsnb",
  "1385": "ĠpꜣĠnb",
  "1386": "-sẖ",
  "1387": "Ġr.ꞽnk",
  "1388": "Ġzp-2",
  "1389": "Ġḥr.ꞽ-sštꜣ",
  "1390": "Ġꞽr.ꞽ",
  "1391": "ꜥw",
  "1392": "Ġꞽꜣw.t",
  "1393": "Ġꜥꜣ.t",
  "1394": "Ġḥz",
  "1395": "Ġ(ꞽ)tm",
  "1396": "Ġ(ꞽ)tm(.w)",
  "1397": "-nbw",
  "1398": "Ġꜣḥ",
  "1399": "Ġmw.tĠ=s",
  "1400": ".ḫrĠ=k",
  "1401": "mꜣꜥ",
  "1402": "Ġ⸗kĠm",
  "1403": "ĠwsꞽrĠḫnṱ-ꞽmnṱ",
  "1404": "eĠn",
  "1405": "ĠhꜣĠn(ꞽ).t",
  "1406": "-ḥꜣ",
  "1407": "-s.t",
  "1408": "Ġmḏ",
  "1409": "wi̯=f-wꞽ",
  "1410": "Ġꞽ:nḏ",
  "1411": "Ġꞽꜥ",
  "1412": "ꞽ.w",
  "1413": "-ꞽt",
  "1414": "-wꜥb",
  "1415": "Ġẖr.t",
  "1416": "Ġsg",
  "1417": "Ġwꜥb-n",
  "1418": "r-ꞽmn",
  "1419": "Ġm-šs",
  "1420": "Ġḥr-sꜣ-ꜣs.t",
  "1421": "Ġsṯꜣ.ṱ",
  "1422": "Ġgy",
  "1423": "-ḥm(.w)-kꜣ",
  "1424": "Ġšr.t",
  "1425": "-ḥḏ",
  "1426": "Ġnhp",
  "1427": "Ġn.t",
  "1428": "Ġqbḥ",
  "1429": "-ḥ(ꜣ)b(.t)",
  "1430": "Ġḏs",
  "1431": "b.tĠ=f",
  "1432": "ms",
  "1433": "Ġwḥm",
  "1434": "i̯ĠnĠ=k",
  "1435": "dꞽ",
  "1436": "ĠkꜣĠ=f",
  "1437": ".tw",
  "1438": ".wyĠn",
  "1439": "-mꜣꜥ.t",
  "1440": "ĠrnĠn",
  "1441": "Ġm-q",
  "1442": "ĠꞽrmĠnꜣyĠ=f",
  "1443": "Ġr.rĠ=w",
  "1444": "-1",
  "1445": "-ḥ.t",
  "1446": "Ġrmṯ-rḫ",
  "1447": "-mnṱ",
  "1448": "Ġ(ꞽ)r(.ꞽt-ꞽ)ḫ(.t)-nswt",
  "1449": "Ġpꞽ",
  "1450": "Ġski̯",
  "1451": ".yĠn",
  "1452": "Ġspr",
  "1453": "-nꞽ.t",
  "1454": "ꜥy",
  "1455": "=f-ꜥnḫ",
  "1456": "Ġḏmꜥ",
  "1457": "ĠwnꞽsĠmĠnĠ=k",
  "1458": "Ġsḫr",
  "1459": "Ġḥmsi̯",
  "1460": "Ġšꜣ",
  "1461": "Ġwꜥb-nswt",
  "1462": ".nĠ=k",
  "1463": "Ġmri̯",
  "1464": "Ġtb",
  "1465": "r-ḥw.t",
  "1466": "Ġsmn",
  "1467": "Ġsn.t",
  "1468": "ĠꞽwĠpꜣ",
  "1469": "ĠꞽyĠr",
  "1470": "Ġptrꞽ",
  "1471": "ĠpꜣĠꜥꜣ",
  "1472": "šy",
  "1473": "ĠḏdĠ=w",
  "1474": "ĠꞽrĠnb.t-pr",
  "1475": "ṱ)",
  "1476": "Ġꞽmn.t(ꞽ)",
  "1477": "Ġꞽmi̯",
  "1478": "Ġ=sĠm",
  "1479": "-ḏw",
  "1480": "-n.t",
  "1481": "Ġ=fĠꜥnḫ",
  "1482": "Ġsnf",
  "1483": "-ꜥḏ",
  "1484": "Ġbw-ꞽ",
  "1485": "Ġwšd",
  "1486": "Ġwnw.t",
  "1487": "Ġmntk",
  "1488": "-ḥr-r",
  "1489": "-pa",
  "1490": "Ġwsꞽr-s",
  "1491": "Ġḥwy",
  "1492": "Ġqrs.t",
  "1493": "Ġhn",
  "1494": "Ġḏḏ",
  "1495": ".wĠr",
  "1496": "Ġ=tw",
  "1497": "-mḏ",
  "1498": "r-mḏ",
  "1499": "Ġsnṯr",
  "1500": "ĠrĠnḥḥ",
  "1501": "-m-ꜥnḫ",
  "1502": "Ġkw",
  "1503": "Ġḥr.wĠnṯr(.ꞽ)",
  "1504": "Ġwp.t",
  "1505": "Ġnḫ",
  "1506": "Ġwsr",
  "1507": "Ġmwt",
  "1508": "-mnḫ",
  "1509": "~ꞽrʾ~",
  "1510": "Ġḏd-m",
  "1511": "ḥwty",
  "1512": "ĠꞽrmĠ=f",
  "1513": "Ġꞽr-rḫ",
  "1514": "Ġwn-nꜣ.w",
  "1515": "Ġꜣḫ.PL",
  "1516": "Ġḥm(.t)",
  "1517": ".tĠmḥ",
  "1518": "y.tĠn",
  "1519": "Ġẖdb",
  "1520": "ĠꞽrĠpꜣ",
  "1521": "Ġwpy",
  "1522": "Ġwsꞽr-skr",
  "1523": "Ġmn-mtw",
  "1524": "Ġ=wĠnĠ=y",
  "1525": "ĠtmĠdy.t",
  "1526": "Ġbn-ꞽwĠ=y",
  "1527": "Ġꞽw-ḏbꜣ",
  "1528": "(ṱ)",
  "1529": "ĠpꜣĠꞽ.ꞽr",
  "1530": "Ġm-ẖnw",
  "1531": "Ġꞽwn.w",
  "1532": "ĠšsĠḫꜣ",
  "1533": "Ġḥnq.tĠḫꜣ",
  "1534": "-ꜣḫ",
  "1535": "Ġhꜣb",
  "1536": "Ġḥtr",
  "1537": "ꜣĠn",
  "1538": "Ġꜣq",
  "1539": "wy",
  "1540": "-bꜣst.t",
  "1541": "ĠrĠnꜣ",
  "1542": "Ġḥnꜥ-ḏd",
  "1543": "Ġ⸗fĠr",
  "1544": "ĠpꜣĠtꜣ",
  "1545": ".wĠnty",
  "1546": "mꜣ-tꜣ.wy",
  "1547": "Ġꞽny",
  "1548": "Ġnḫt",
  "1549": "ĠnĠkꜣ",
  "1550": "Ġtr",
  "1551": "r-kꜣ",
  "1552": "Ġ(ꞽ)r(.ꞽ)",
  "1553": "Ġṯs",
  "1554": "-ꜣb",
  "1555": "Ġwbn",
  "1556": "-nb.tꞽ",
  "1557": "Ġmrr",
  "1558": "wn",
  "1559": "-sbk",
  "1560": "Ġḥr-m",
  "1561": "ĠtꜣĠs.tĠn",
  "1562": "ĠpꜣĠḥm-nṯr-(n-)",
  "1563": "th",
  "1564": "-ꞽ.ꞽr",
  "1565": "Ġnḥm",
  "1566": "Ġmsi̯.n",
  "1567": ".)",
  "1568": "-n)",
  "1569": ".DUĠ=k",
  "1570": "hꜣ",
  "1571": "Ġḏd.n",
  "1572": "-pr-ḥḏ",
  "1573": "(f",
  "1574": "(f)",
  "1575": "Ġḥm-nṯr-n",
  "1576": "ĠnĠ⸗ꞽ",
  "1577": "-nḫt.ṱ",
  "1578": "ĠtꜣyĠ=w",
  "1579": "Ġhyn.w",
  "1580": "nsw",
  "1581": "-ꞽtm",
  "1582": "ĠtꜣyĠ=fĠḥm.tĠnꜣyĠ=f",
  "1583": "še",
  "1584": "Ġ(w)sꞽrĠwnꞽsĠmĠnĠ=k",
  "1585": "Ġḫ.t",
  "1586": "Ġꞽmꜣḫ.w-ḫr-nṯr-ꜥꜣ",
  "1587": "Ġnḏm",
  "1588": "Ġṯ(ꜣ)",
  "1589": "Ġ=ꞽĠm",
  "1590": "Ġstp",
  "1591": "Ġgꜣ",
  "1592": "Ġꞽwf",
  "1593": "ĠḥrĠsꜣ",
  "1594": "Ġty",
  "1595": "Ġꞽwnw",
  "1596": "ĠpꜣyĠ⸗ꞽĠnb",
  "1597": ".wĠnꜣ",
  "1598": "ĠtwĠ=w",
  "1599": "lꜥ",
  "1600": "-ꜥ.wy",
  "1601": "Ġlh̭",
  "1602": "Ġꞽn-nꜣ.w",
  "1603": "e.tĠn",
  "1604": "ĠtꜣĠnṯr.t",
  "1605": "tf",
  "1606": "Ġ=ꞽĠn",
  "1607": "Ġswꜣ",
  "1608": "Ġmnḫ.tĠḫꜣ",
  "1609": "Ġmꜣꜥ.t-ḫrw",
  "1610": "-qd",
  "1611": "Ġḏf",
  "1612": "Ġꜣs",
  "1613": "Ġsꜥnḫ",
  "1614": "ẖꜣ",
  "1615": "Ġhr",
  "1616": "ꜥ.t",
  "1617": "Ġꞽ:ꞽri̯",
  "1618": "Ġ⸗kwꞽ",
  "1619": "r-dy",
  "1620": "Ġr-ḏbꜣ",
  "1621": ".ṱĠ=s",
  "1622": "Ġ=wĠṱ",
  "1623": "ĠsꜣĠꞽr.t",
  "1624": "Ġm-bꜣḥĠpr-ꜥꜣ",
  "1625": "Ġ=wĠnĠ=t",
  "1626": "t.t",
  "1627": ".nw",
  "1628": "Ġ(ꞽ)m(.ꞽ)-rʾ-pr",
  "1629": "Ġn.tꞽĠm",
  "1630": "ĠnĠ=kĠꞽr(.t)-ḥr.w",
  "1631": "-ḏw=f",
  "1632": "Ġnb-tꜣ-ḏsr",
  "1633": "-š-pr-ꜥꜣ",
  "1634": ".tĠmḥ.w",
  "1635": "ĠḥrĠtꜣ",
  "1636": "Ġḥr.wĠnṯr(.ꞽ)-ẖ.t",
  "1637": "ʾw.t",
  "1638": "-sn",
  "1639": "Ġḏꜣḏꜣ",
  "1640": "-ms",
  "1641": "-tn",
  "1642": "Ġmḥṱ",
  "1643": "-ḥr-pꜣ",
  "1644": "yn",
  "1645": "Ġbw-ꞽrĠ=w",
  "1646": "Ġdny.tĠ1/",
  "1647": "Ġmw.tĠ=fĠta",
  "1648": "Ġbn-pwĠ=f",
  "1649": ".r=w",
  "1650": "Ġtf",
  "1651": ".PLĠ=sn",
  "1652": "zw-bꞽ.tꞽ",
  "1653": "Ġḥr.wĠwꜣḏ",
  "1654": "(.ꞽ)-m-ꜥnḫ",
  "1655": "Ġrwḏ",
  "1656": "Ġm-ꜥ",
  "1657": "Ġꜣm",
  "1658": "r-wsꞽr",
  "1659": "-ꜥš",
  "1660": "Ġꞽꜥḥ",
  "1661": "Ġ⸗kĠsw",
  "1662": "Ġr-bnr",
  "1663": "-ꞽ.ꞽ",
  "1664": "Ġḥꜣty.ṱĠ=f",
  "1665": "ĠḏdĠpr-ꜥꜣ",
  "1666": "Ġꞽ.ꞽrĠ=w",
  "1667": "ĠpꜣyĠ=fĠby",
  "1668": "r-ꞽb",
  "1669": "Ġḏi̯.n",
  "1670": "i̯Ġṯw",
  "1671": "Ġḏbꜣ",
  "1672": "Ġ=fĠꞽm",
  "1673": "ĠḥrĠn",
  "1674": "Ġꞽw.tĠmḥ.w",
  "1675": "wꜣ",
  "1676": "Ġgmi̯",
  "1677": "-sp",
  "1678": "Ġmdw",
  "1679": "Ġrmṯ.PL",
  "1680": "-nty",
  "1681": "yt",
  "1682": "Ġ=(f)",
  "1683": "ĠpꜣyĠ⸗k",
  "1684": "Ġr.ḥrĠ=y",
  "1685": "Ġnṯr-ꜥꜣĠnb-ꞽbt",
  "1686": "Ġꜥšꜣy",
  "1687": "ṯꜣw",
  "1688": "ĠdyĠn",
  "1689": "Ġr.rĠ=k",
  "1690": "Ġꞽd",
  "1691": "Ġrnp.t",
  "1692": "-ꞽ)ḫ.t",
  "1693": "ĠḥrĠ=s",
  "1694": "-ꜣbḏ",
  "1695": "ĠrnĠꞽwꜣ",
  "1696": "Ġpz",
  "1697": "-ꜥḥ",
  "1698": "Ġḥw.t-nbw",
  "1699": "Ġẖr-nṯr",
  "1700": "Ġsmr",
  "1701": "k.t",
  "1702": "Ġꞽm(.ꞽ).w",
  "1703": "(y)t",
  "1704": "Ġzẖꜣ",
  "1705": "Ġr-ḥr",
  "1706": "-tp-nswt",
  "1707": "r-rꜥ",
  "1708": "ĠṯꜣyĠn",
  "1709": "ĠḥrĠḏdĠnĠ⸗f",
  "1710": "Ġmn-nfr",
  "1711": ".ṱĠ=w",
  "1712": "ĠsꜣĠns",
  "1713": "ĠpꜣyĠ=fĠšr",
  "1714": "Ġ=yĠs",
  "1715": "ĠḏdĠnĠ=y",
  "1716": "-dy",
  "1717": "Ġẖrd.ṱ.wĠn",
  "1718": ".ṱĠ=y",
  "1719": "-ꞽw=f-ꜥnḫ",
  "1720": "ĠꞽrmĠtꜣ",
  "1721": "Ġpꜣy.y",
  "1722": "Ġwyn",
  "1723": "Ġwšb",
  "1724": ".DUĠ=fꞽ",
  "1725": "šr",
  "1726": "Ġpr.t-ḫrw",
  "1727": "kn",
  "1728": "ĠpwĠn(.ꞽ)",
  "1729": "(-n)",
  "1730": "Ġqnb",
  "1731": "pw",
  "1732": "-sn.w",
  "1733": "Ġšb",
  "1734": "w.w",
  "1735": "Ġssw",
  "1736": "hy",
  "1737": "ĠmtwĠ⸗k",
  "1738": "Ġsmy",
  "1739": "Ġꞽꜣbṱ",
  "1740": "-nꜣy",
  "1741": "Ġwꜣḥ-mw",
  "1742": ".ꞽm=w",
  "1743": "ĠnꜣĠrmṯ.w",
  "1744": "Ġmw.tĠ=(f)",
  "1745": "(y)n",
  "1746": "Ġꞽꜣwi̯",
  "1747": "Ġšsꜣ.w",
  "1748": "Ġḥf",
  "1749": "-ꞽmꜣḫ",
  "1750": "Ġnb.tĠn",
  "1751": "-nḫt",
  "1752": "ĠwsꞽrĠnb",
  "1753": "Ġḥw.t-kꜣ",
  "1754": "Ġsꜥḥ",
  "1755": "ĠꞽyĠn",
  "1756": "ꜣs.t",
  "1757": "ḥy",
  "1758": "-nḏ",
  "1759": "-(n)",
  "1760": "Ġtw⸗k",
  "1761": "sĠsꜣ",
  "1762": "Ġꞽ.ꞽr-n",
  "1763": "Ġpꜣ-hrwĠr-ḥry",
  "1764": "Ġyb",
  "1765": "-šn",
  "1766": "Ġqmꜣ",
  "1767": "Ġṯ(ꜣ)z",
  "1768": "-nṯr-w",
  "1769": "Ġdbḥ",
  "1770": "Ġꞽyi̯-n(=ꞽ)",
  "1771": "Ġ=kĠḏd",
  "1772": "Ġmr.t",
  "1773": "Ġꞽwn",
  "1774": "by",
  "1775": "Ġwꞽ",
  "1776": "-rd",
  "1777": "-st",
  "1778": "ĠwsꞽrĠn",
  "1779": "Ġ=fĠpꜣ",
  "1780": "sĠꜥnḫ-wḏꜣ-snb",
  "1781": "ĠꞽwĠ=fĠḏd",
  "1782": "Ġpꜣ-dy-wsꞽr",
  "1783": "Ġsẖ.w",
  "1784": "mnw",
  "1785": "Ġꞽrpy",
  "1786": "Ġẖnm",
  "1787": "-wt",
  "1788": "ty.t",
  "1789": "Ġ(w)sr(.w)Ġn(ꞽ).t",
  "1790": "Ġšps",
  "1791": "ĠnbĠn",
  "1792": "Ġꜣh",
  "1793": "ẖm",
  "1794": "ĠꞽrĠ=s",
  "1795": "Ġ⸗ꞽĠm",
  "1796": "Ġhry",
  "1797": "ĠpꜣyĠ=n",
  "1798": "ĠẖnĠtꜣ",
  "1799": "ṱ.t",
  "1800": "ṱy",
  "1801": "Ġꞽ.ꞽry",
  "1802": "Ġẖr(.ꞽ)-ḥ(ꜣ)b(.t)",
  "1803": "ĠmĠ=k",
  "1804": "Ġmnw",
  "1805": ".w.PLĠn",
  "1806": "Ġꞽwt",
  "1807": "Ġwꜣ.t.PL",
  "1808": "Ġsḥm",
  "1809": "Ġꞽn.wĠšmꜥ.w",
  "1810": "Ġfꜣ",
  "1811": "Ġꞽ:ḏd",
  "1812": "-n.tꞽ",
  "1813": "qw",
  "1814": "Ġsn.w",
  "1815": ".ṱĠ⸗k",
  "1816": ".wĠnĠpꜣ",
  "1817": "Ġẖl",
  "1818": "ĠꞽwĠ=yĠ(r)Ġdy.t",
  "1819": "Ġwn-mtw",
  "1820": "-n.ꞽm=w",
  "1821": "ĠẖnĠpꜣ",
  "1822": "ĠpꜣyĠ=(y)ĠnbĠꜥꜣ",
  "1823": "Ġꞽꜥb",
  "1824": "Ġḥt",
  "1825": "Ġmdw.t",
  "1826": "Ġrḏi̯.t",
  "1827": "Ġsḫn",
  "1828": "Ġḥ(ꜣ)b",
  "1829": "Ġ(ꜣ)",
  "1830": "Ġ(ꜣ)s.t",
  "1831": "Ġḥr.wĠwꜣḏ.w",
  "1832": "(ꞽ).t",
  "1833": "Ġḫꜥi̯",
  "1834": "Ġꜥf",
  "1835": "ĠmĠtꜣ",
  "1836": "ĠḥrĠ=f",
  "1837": "Ġ=tĠn",
  "1838": "ĠmwĠn",
  "1839": "ĠpꜣĠsn",
  "1840": "-bw",
  "1841": "-sḥn",
  "1842": "ĠnꜣyĠ=s",
  "1843": "Ġꞽwty",
  "1844": "Ġsh̭",
  "1845": "ĠpꜣĠh̭",
  "1846": ".ṱĠ=fĠn",
  "1847": "ĠrĠšms",
  "1848": "Ġꞽr.t-ḥr.w",
  "1849": "ĠmĠḥtp",
  "1850": "-zẖꜣ.ww",
  "1851": "z.t",
  "1852": "-bꜣḥ",
  "1853": "-šmꜥ.w",
  "1854": "Ġpr-ḥḏ",
  "1855": "Ġꞽš",
  "1856": "ĠppyĠnfr-kꜣ-rꜥwĠm",
  "1857": "Ġsnḏm",
  "1858": ".kwꞽ",
  "1859": "Ġḥꜣb-s",
  "1860": "Ġḫwi̯",
  "1861": "Ġswt",
  "1862": "ʾ.t",
  "1863": "Ġꞽyi̯-n(=ꞽ)-ẖnm.w",
  "1864": "Ġnb.w",
  "1865": "Ġšdi̯",
  "1866": "ꜣ.wt",
  "1867": "Ġḥtp-ḏꞽĠnswt",
  "1868": "-rnp.t",
  "1869": "Ġmnq",
  "1870": "ẖn",
  "1871": "Ġpt",
  "1872": "(ꜥ",
  "1873": "Ġbk",
  "1874": "Ġ⸗ꞽĠr",
  "1875": "ĠꞽwĠ⸗tw",
  "1876": "Ġ=fĠmy",
  "1877": "Ġ=fĠ(r)",
  "1878": "ĠwyĠ=fĠr",
  "1879": "ĠpꜣyĠ=fĠsn",
  "1880": "Ġbw-ꞽr-rḫ",
  "1881": "ĠnbĠnty-ḥry",
  "1882": "ĠtꜣyĠ=(y)",
  "1883": "Ġby-(n-)ḥp-wsꞽrĠsḏm-(n-)ḥp-ꜥnḫĠpꜣĠnṯr-ꜥꜣ",
  "1884": "Ġsbk-nb",
  "1885": "-pꜣ-m",
  "1886": "Ġr.ꞽr",
  "1887": "sꞽr-ḥp",
  "1888": "ĠtꜣĠnty",
  "1889": "ĠnfrĠwr.t",
  "1890": "ĠstĠn",
  "1891": "Ġmr.y",
  "1892": "ĠnĠ=kĠḥr.w",
  "1893": "Ġswḏꜣ",
  "1894": "Ġsḥtp",
  "1895": "Ġḥsb",
  "1896": "Ġ=ṯn(ꞽ)",
  "1897": "Ġḥꜣb-sd",
  "1898": "Ġmsḏr",
  "1899": ".(w)",
  "1900": "Ġšš",
  "1901": "Ġr(m)",
  "1902": "ĠꜣpdĠḫꜣ",
  "1903": "ĠꞽbĠn",
  "1904": "Ġꞽtn",
  "1905": "Ġḏw",
  "1906": "ḥṱ",
  "1907": "Ġẖr.r",
  "1908": "Ġgl",
  "1909": "dy.t",
  "1910": "-ṯꜣw",
  "1911": "Ġṯꜣy-n.ꞽm=w",
  "1912": "Ġḥ.t-ḥr",
  "1913": "Ġnꜣ.w-n",
  "1914": "qy",
  "1915": "ĠmĠz",
  "1916": "ĠꞽmĠ=s",
  "1917": "ĠhꜣĠn(ꞽ).tĠpw",
  "1918": ".wĠn(.ꞽ)",
  "1919": "ĠnĠwsꞽr",
  "1920": "ĠrnĠ=s",
  "1921": "i̯=f",
  "1922": "ꜥꜣ",
  "1923": "Ġkꜣ(.ꞽ)-m-ꜥnḫ",
  "1924": "Ġtꞽ",
  "1925": "Ġḫnsw",
  "1926": "ĠꞽwĠ=n",
  "1927": "Ġr-ḥꜣ.t",
  "1928": "ĠꞽwĠ=fĠm",
  "1929": "ĠšmĠr",
  "1930": "ĠnĠ⸗f",
  "1931": "Ġḏd-md.t",
  "1932": "ĠpꜣĠꜥ.wyĠn",
  "1933": "r-ḫnsw",
  "1934": "ĠsꜣĠpꜣ-š",
  "1935": "ĠnĠ=w",
  "1936": "ĠḥrĠpꜣĠtꜣ",
  "1937": "ĠꞽrĠ=y",
  "1938": "ĠhbĠnĠ=y",
  "1939": "Ġrd.wy",
  "1940": "ĠtʾĠḥnq.t",
  "1941": "Ġšdi̯.t",
  "1942": "Ġḫpr.t",
  "1943": "w.PL",
  "1944": "ĠꞽbĠ=k",
  "1945": "-ꞽ)ḫ.t-nswt",
  "1946": "Ġtp(.ꞽ)",
  "1947": "Ġḥqꜣ-ḥw.t",
  "1948": "Ġḥ(n)",
  "1949": "Ġḫnt(.ꞽ)-ꞽmn",
  "1950": "Ġꞽ(w)",
  "1951": "kr.t",
  "1952": "Ġḫtm.w-nṯr-w",
  "1953": "Ġḫtm.w-nṯr-wꞽꜣ",
  "1954": "Ġwr-mḏ",
  "1955": "-nb.t",
  "1956": "-n-w",
  "1957": "-ꞽꜣ",
  "1958": "Ġꞽmn-ḥtp",
  "1959": "Ġtp.ꞽ-ḏw=f",
  "1960": "Ġḥtp-ḏꞽĠnswtĠḥtp-ḏꞽ",
  "1961": "Ġsmꜣꜥ",
  "1962": "Ġḥtp.t",
  "1963": "-sm",
  "1964": "-ḥb",
  "1965": "Ġsḥḏ-ḥm(.w)-kꜣ",
  "1966": "-my",
  "1967": "rꜥ",
  "1968": "ĠpꜣĠw",
  "1969": "ĠmtwĠ=yĠdy.t",
  "1970": "-(n-)s",
  "1971": "-pay",
  "1972": "Ġꜥl",
  "1973": "ĠsꜣĠꜥnḫ",
  "1974": "ĠpꜣĠmr-šn",
  "1975": "yr",
  "1976": "Ġbꞽꜣ",
  "1977": "ĠwnꞽsĠpꞽ",
  "1978": "ĠzꜣĠ=fĠsms.w",
  "1979": "i̯.t(ꞽ)",
  "1980": "Ġzꜣ-nswt",
  "1981": "-n-nswt",
  "1982": "Ġšrꞽ",
  "1983": "Ġꜥm",
  "1984": "Ġmdwi̯",
  "1985": "ꜥn",
  "1986": "ĠmĠrʾ",
  "1987": "(w).t",
  "1988": "Ġḥnw.t",
  "1989": ".wĠ=k",
  "1990": "ḥs",
  "1991": "Ġswn",
  "1992": "Ġwḏꜥ",
  "1993": "Ġẖr-",
  "1994": "Ġwrr",
  "1995": "Ġꞽr-s",
  "1996": "wš",
  "1997": "Ġḫtmw",
  "1998": "ꜣḥ",
  "1999": "-ꞽp",
  "2000": "hs",
  "2001": "-ḏḥwty",
  "2002": "Ġpꜣ-šr-mn",
  "2003": "ꜣyĠpꜣ-hrwĠr-ḥry",
  "2004": "Ġbtw",
  "2005": "Ġḥ.t-nn",
  "2006": "Ġḥ.t-nn-nsw",
  "2007": "=w-r",
  "2008": "Ġꞽ.ꞽrĠ=kĠdy.t",
  "2009": "-sk",
  "2010": ".nĠṯw",
  "2011": "Ġ2",
  "2012": "ĠnĠpꜣy",
  "2013": "Ġ=fĠnfr",
  "2014": "Ġmr-ꞽb",
  "2015": "ĠrĠwꜥ",
  "2016": "Ġwꜣ.t",
  "2017": "ĠtʾĠḫꜣĠḥnq.tĠḫꜣ",
  "2018": "ĠꞽḥĠḫꜣ",
  "2019": "Ġḥtm",
  "2020": "ĠnĠ=s",
  "2021": "Ġmnꞽ",
  "2022": "Ġss",
  "2023": "Ġḥkꜣ",
  "2024": "Ġdmḏ",
  "2025": "Ġḏi̯Ġ=f",
  "2026": "Ġꜥḥꜥ.nĠḏd.n",
  "2027": "wt",
  "2028": "ĠꞽwĠ=fĠr",
  "2029": "Ġnk",
  "2030": "Ġḥy",
  "2031": "Ġtw⸗ꞽ",
  "2032": "ĠntyĠẖr",
  "2033": "Ġmd(.t)ĠnbĠnĠpꜣĠtꜣ",
  "2034": "-ꜥw",
  "2035": ".m",
  "2036": "Ġ(n-)ḏr",
  "2037": "Ġm-qdy",
  "2038": "yĠn.ꞽmĠ=w",
  "2039": "-ḥr-r.r=w",
  "2040": "-ꜥẖm",
  "2041": "Ġḫtmw-nṯr",
  "2042": "ĠmtwĠ=wĠdy.t",
  "2043": "Ġwyt",
  "2044": "Ġꞽmn.t(ꞽ).t",
  "2045": "Ġrmn",
  "2046": "-mḥ",
  "2047": "Ġꞽṯi̯",
  "2048": "Ġḥr.wĠkꜣ",
  "2049": "i̯Ġ=kĠz",
  "2050": "Ġẖkr.t",
  "2051": "-ḫwi̯=f-wꞽ",
  "2052": "Ġbw.t",
  "2053": "ꜣꜥ.t",
  "2054": "-sšr",
  "2055": "Ġẖr.t-nṯr",
  "2056": "Ġḫntꞽ",
  "2057": "mĠn",
  "2058": "Ġsḫ.tꞽ",
  "2059": "ẖr",
  "2060": "(y",
  "2061": "ĠstĠr",
  "2062": "Ġsnsn",
  "2063": "r-ꜥnḫ",
  "2064": "r-ꞽw",
  "2065": ".wĠnĠtꜣ",
  "2066": "Ġ⸗fĠꞽw",
  "2067": "ĠnꜣĠmd.t",
  "2068": "ĠtꜣĠpš",
  "2069": "Ġn-ḏr.t",
  "2070": "ĠdyĠ=y",
  "2071": "Ġn-ḏr",
  "2072": "ĠrmṯĠnbĠnĠpꜣĠtꜣ",
  "2073": "Ġbw-ꞽrĠ=f",
  "2074": "ĠꞽwĠ=yĠr",
  "2075": "Ġpꜣy=f",
  "2076": "ĠṱĠ=k",
  "2077": "-ḥtr",
  "2078": "ĠꞽrĠ=fĠn",
  "2079": "te",
  "2080": "ĠꞽwĠ=yĠ(r)",
  "2081": "ĠṱĠ=t",
  "2082": "Ġẖe",
  "2083": "Ġmd(.t).w",
  "2084": "lꜣ",
  "2085": "Ġꜣn",
  "2086": "Ġfy(.t)",
  "2087": "Ġẖrd",
  "2088": "-ḫr-nṯr-ꜥꜣ",
  "2089": "-ꞽz",
  "2090": "Ġnḏr",
  "2091": "Ġwṯ",
  "2092": "Ġqs.t",
  "2093": "Ġẖkr.t-nswt",
  "2094": "nĠm",
  "2095": "Ġrnp",
  "2096": "-sḏ",
  "2097": "Ġpsḏ",
  "2098": "Ġḫft(.ꞽ)",
  "2099": "Ġꞽ:nḏĠḥrĠ=k",
  "2100": "Ġdi̯",
  "2101": "Ġꞽmn.t",
  "2102": "ĠmĠn",
  "2103": "Ġmꜣ-ḥḏ",
  "2104": "Ġ=sn(ꞽ)",
  "2105": "ĠꞽmĠ=k",
  "2106": "-ẖnm",
  "2107": "Ġnfr.t",
  "2108": "Ġzꜣw",
  "2109": "Ġpd",
  "2110": "-ḫm",
  "2111": "Ġ⸗fĠḥr",
  "2112": "-nw.t",
  "2113": "Ġqy",
  "2114": "Ġḥwṱ",
  "2115": "Ġdy.tĠḫpr",
  "2116": "Ġmy-nn",
  "2117": "Ġr-ẖry",
  "2118": "Ġḫmnw",
  "2119": "Ġnꜣ.w-nfr-kꜣ",
  "2120": "Ġnꜣ.w-nfr-kꜣ-ptḥ",
  "2121": "lwmy",
  "2122": ".PL)",
  "2123": "(my)",
  "2124": "-(n-)n",
  "2125": ".(t)",
  "2126": "i̯.nĠ=fĠnĠ=k",
  "2127": "Ġḏd.t",
  "2128": "ĠppyĠpw",
  "2129": "Ġṯḥ",
  "2130": "-ḥr(.w)",
  "2131": "Ġskꜣ",
  "2132": "Ġbnr",
  "2133": "-ꞽt=f",
  "2134": "Ġsbk-ḥtp",
  "2135": "Ġwdn",
  "2136": "-ꞽr.t",
  "2137": "-nṯr-ḥw.t",
  "2138": "-sḫm",
  "2139": "Ġmʾw.t",
  "2140": "ĠḫrĠ=k",
  "2141": "ꜣḏ.t",
  "2142": "Ġḫb",
  "2143": "ky",
  "2144": "Ġẖr",
  "2145": "-ḥs",
  "2146": "Ġḥnw",
  "2147": "(ꜥ)",
  "2148": "ĠnꜣyĠ⸗f",
  "2149": "-ẖrd",
  "2150": "Ġmꜥ~",
  "2151": "~tꞽ",
  "2152": "ĠtꜣĠmy.t",
  "2153": "Ġ(n-)rnĠ=f",
  "2154": "ĠsẖĠḥry",
  "2155": "Ġmn-mtwĠ=y",
  "2156": "ĠꞽrmĠ=y",
  "2157": "ĠꞽrĠnĠ=k",
  "2158": "Ġpꜣy=f-ṯꜣw",
  "2159": "-ẖl",
  "2160": "ĠṯꜣyĠ=w",
  "2161": "r-ꞽt.ṱ",
  "2162": "Ġmḥ-",
  "2163": "ĠdyĠnĠpꜣ-hrw",
  "2164": "ĠtꜣĠnṯr.t-ꜥꜣ.t",
  "2165": "Ġ(n)Ġtꜣ",
  "2166": "-n-ḥp",
  "2167": "e.w",
  "2168": "Ġꞽrr",
  "2169": "ĠnhpĠ=fĠn",
  "2170": "Ġḫꜣi̯Ġ=kĠz",
  "2171": "Ġḫꜣi̯Ġ=kĠzĠn(.ꞽ)",
  "2172": "Ġḥr.ꞽ-tp",
  "2173": "-wꜥ",
  "2174": "Ġqꜣb.tĠ=f",
  "2175": "Ġdr",
  "2176": "Ġṯzi̯Ġṯw",
  "2177": "ĠzꜣĠ=k",
  "2178": "Ġsnḏm-ꞽb",
  "2179": "Ġnb-ꞽmꜣḫ",
  "2180": "Ġẖnm",
  "2181": "Ġzẖꜣ.w-ꜥ",
  "2182": "ĠpwĠn",
  "2183": "Ġḥr.wĠꜥḏ",
  "2184": "Ġkf",
  "2185": "Ġꜥḫ",
  "2186": "Ġḥtp-ḏi̯-nswt",
  "2187": "Ġḥr.wĠḥtp",
  "2188": "tt",
  "2189": "Ġẖ.tĠ=f",
  "2190": "-n(.ꞽ)",
  "2191": "Ġẖnw",
  "2192": "-ꜣḫ.tꞽ",
  "2193": ".wĠꞽw",
  "2194": "-gs",
  "2195": "Ġḫw",
  "2196": "Ġḥnq",
  "2197": "ĠꜥnḫĠn",
  "2198": "Ġmrw.t",
  "2199": "ĠnĠmd.t",
  "2200": "ns",
  "2201": "Ġḥmt",
  "2202": "Ġr-n.tꞽ",
  "2203": "Ġ⸗tn",
  "2204": "Ġẖr-r",
  "2205": "ĠnꜣyĠ=t",
  "2206": "ĠꜥnḫĠby",
  "2207": "ĠpꜣĠnty-ꞽwĠ=fĠr",
  "2208": "ĠntyĠn",
  "2209": "Ġꞽbd",
  "2210": "Ġpꜣy=f-ṯꜣw-ꜥ.wy",
  "2211": "ĠḥrĠsꜣĠpꜣ-dy",
  "2212": "-tꜣy=f",
  "2213": "ĠꞽwĠbn-pw",
  "2214": "ĠtwĠ=t",
  "2215": "Ġꞽ.ꞽrĠ=f",
  "2216": "Ġẖbs",
  "2217": "Ġbd.t",
  "2218": "Ġqrs",
  "2219": "Ġ(ꞽ)r(.ꞽ)-p",
  "2220": "ĠẖrĠ=s",
  "2221": "Ġḥr.wĠnꜥ",
  "2222": "ꜥꜥ",
  "2223": "Ġꞽm.ꞽ-wt",
  "2224": "=ꞽ",
  "2225": "-d",
  "2226": "Ġꜣw",
  "2227": "Ġkꜣ.PL",
  "2228": "Ġḥr.wĠꜥḏ-ꞽb",
  "2229": "sšm",
  "2230": "r-sn",
  "2231": "Ġdp",
  "2232": "Ġmr-",
  "2233": "ĠswĠḥr",
  "2234": "Ġp.tĠm",
  "2235": "Ġdwn",
  "2236": ".PLĠḥr",
  "2237": "ĠꞽmĠ=f",
  "2238": "i̯Ġr",
  "2239": "Ġẖr.ꞽ-tp-nswt",
  "2240": "Ġwꜥb.t",
  "2241": "mṯ",
  "2242": "Ġšꜥ.t",
  "2243": "-n-p",
  "2244": "ꜥnḫ",
  "2245": "Ġtnw",
  "2246": "-ḏi̯",
  "2247": "Ġꞽmi̯Ġ⸗k",
  "2248": "ĠtꜣyĠ=t",
  "2249": "Ġpꜣ-dy-ꞽmn",
  "2250": "Ġmd.tĠnb",
  "2251": "Ġhyn",
  "2252": "Ġsꜣ.tĠn",
  "2253": "Ġnꜣ-nfr-",
  "2254": "Ġ(n)Ġnꜣ",
  "2255": "-ꞽy-m-ḥtp",
  "2256": "r-mšꜥ",
  "2257": "ĠꞽwĠ=wĠdy.t",
  "2258": "-mnḫ.w",
  "2259": "Ġšꜥd.ṱ",
  "2260": "wṱ",
  "2261": "Ġm-bꜣḥĠwsꞽr",
  "2262": "Ġꜥš-sḥn",
  "2263": "ĠtwĠ=fĠḫpr",
  "2264": "ĠtꜣyĠ(=y)",
  "2265": "-n-ꜥḏ",
  "2266": "Ġ(sꜣ)Ġpꜣ-dy",
  "2267": "Ġwsꞽr-skrĠnṯr-ꜥꜣĠnb-ꞽbt",
  "2268": "(.PL)",
  "2269": "(my).t",
  "2270": "ĠḥrĠḏd",
  "2271": "Ġḥḥ",
  "2272": "hp",
  "2273": "ꜥ(.t)",
  "2274": "Ġrꜥw-wr",
  "2275": "-ḫnt.w",
  "2276": "ĠkꜣĠn(.ꞽ)",
  "2277": "Ġwt.ꞽ",
  "2278": "Ġpzn",
  "2279": "qꜣ",
  "2280": ".)t",
  "2281": "ĠꜥꜣĠn",
  "2282": "(ʾ",
  "2283": "(ʾ)",
  "2284": "Ġḥm.tĠ=f",
  "2285": "ĠḥnꜥĠkꜣĠ=f",
  "2286": "Ġ=kĠmĠrnĠ=kĠn(.ꞽ)",
  "2287": "Ġḥm(.t)-nṯr-ḥw.t",
  "2288": "(.t)-n",
  "2289": "Ġꞽꞽ",
  "2290": "Ġzḫ",
  "2291": "(.wꞽ)",
  "2292": "ĠmdwĠn",
  "2293": "r-ꞽn",
  "2294": "Ġḥs.w",
  "2295": "Ġbꞽn",
  "2296": "ĠtꜣĠn",
  "2297": "Ġkm.t",
  "2298": "-ḥꜥ",
  "2299": "00",
  "2300": "ĠnbĠr",
  "2301": "Ġ⸗n",
  "2302": "ĠpꜣĠmšꜥ",
  "2303": "ĠtꜣĠḥ",
  "2304": "yĠnĠpꜣ",
  "2305": "ĠtꜣĠp.t",
  "2306": "ĠnĠrmṯ",
  "2307": "r-dy-s",
  "2308": "Ġḏmꜣꜥ",
  "2309": "Ġmꜣy",
  "2310": "Ġmd(.t)ĠnbĠnty-ḥry",
  "2311": "Ġ(n-)ṯ",
  "2312": "Ġwsh̭",
  "2313": "Ġn-rn",
  "2314": "Ġnty-nbĠnty",
  "2315": "Ġw(y",
  "2316": "-mr-wr",
  "2317": "Ġpꜣ-tꜣ",
  "2318": "Ġnꜣ-ꜥn",
  "2319": "ĠꞽrĠpy",
  "2320": "Ġršy",
  "2321": "-(n-)w",
  "2322": "ĠpꜣĠꜥꜣ-n",
  "2323": "-zẖꜣ.w(w)",
  "2324": "-ḥr(.ꞽ)",
  "2325": "(.",
  "2326": "(.y)",
  "2327": "Ġꞽr.t.DU",
  "2328": "Ġ(ꞽ",
  "2329": "Ġgmm",
  "2330": "Ġ(w)sr(.w)Ġn(ꞽ).tĠmĠnĠ=kĠꞽr(.t)-ḥr.w",
  "2331": "i̯.nĠ=ꞽ",
  "2332": "-wꜣ.t.PL",
  "2333": "ḫ.w",
  "2334": "Ġgrg.t",
  "2335": "ĠḥmĠ=f",
  "2336": "-kꜣ.t",
  "2337": "Ġwꜣg",
  "2338": "Ġ=sĠṯw",
  "2339": "š.t",
  "2340": "Ġqnqn",
  "2341": "Ġr-ḏr",
  "2342": "ĠrĠ=k",
  "2343": "Ġpẖr.t",
  "2344": "šĠn",
  "2345": "Ġsḫt",
  "2346": "Ġḫr.t",
  "2347": "ĠwsꞽrĠnb-ḏd",
  "2348": "Ġpr-ḫrwĠnĠ=fĠm",
  "2349": "Ġ=kĠrĠ=f",
  "2350": "Ġr(m)ṯ",
  "2351": "Ġšmi̯.t",
  "2352": "Ġsšm.w",
  "2353": "ĠpwĠꞽri̯.n",
  "2354": "ĠnĠḏd",
  "2355": "Ġwrḥ",
  "2356": "-ḥ(w)",
  "2357": "Ġsnd",
  "2358": ".tĠmw.t",
  "2359": "Ġḥ(ꜥ)",
  "2360": "-ḥr-s",
  "2361": "Ġnsw",
  "2362": "Ġꞽtm",
  "2363": "ĠbwĠꞽri̯",
  "2364": "ĠtꜣyĠ⸗f",
  "2365": "ĠnĠpꜣĠnṯr",
  "2366": "Ġẖy",
  "2367": "Ġm-bꜣḥĠꜣr",
  "2368": "ĠntyĠḥtp",
  "2369": "Ġꞽry-ꜥꜣ",
  "2370": "Ġtꜣ-dy",
  "2371": "Ġꜥ.wy.w",
  "2372": "ĠḥnĠ=wĠs",
  "2373": "Ġ=fĠr-ẖ",
  "2374": "ĠtꜣyĠ=fĠḥm.tĠnꜣyĠ=fĠẖrd.ṱ.wĠn",
  "2375": "ĠpꜣĠšy",
  "2376": "Ġna",
  "2377": "Ġnb.t-ḥ.t",
  "2378": "Ġꞽr-rꜥ",
  "2379": "ĠrmṯĠnbĠnty",
  "2380": "ĠpꜣĠmr-ꜣḥ",
  "2381": "Ġwsꞽr-ḥp",
  "2382": "ĠrĠpꜣĠmꜣꜥ",
  "2383": "-pꜣ-mtr",
  "2384": "ĠꞽrĠ=wĠn",
  "2385": "Ġꞽ.ꞽrĠḫpr",
  "2386": "ĠrʾĠ=f",
  "2387": "ĠswĠr",
  "2388": "wĠr",
  "2389": "ꞽ.tt",
  "2390": "Ġꞽmꜣḫ.wt",
  "2391": "Ġḥtp-ḥr",
  "2392": "ĠꞽrĠḫꜣi̯Ġ=kĠzĠn(.ꞽ)",
  "2393": "Ġḥ(n)q.t",
  "2394": "Ġwnḫ",
  "2395": "r-mr",
  "2396": "Ġꞽy.t",
  "2397": "Ġḥm-nṯr-ḫ",
  "2398": "Ġḥmꜣ",
  "2399": "gr",
  "2400": "ĠkꜣĠ=k",
  "2401": "ḥm",
  "2402": "Ġꞽmꜣḫ.w-ḫr",
  "2403": "Ġšwi̯",
  "2404": "sšm-rꜥw",
  "2405": "Ġḫpi̯",
  "2406": "-nw",
  "2407": "pr-ꜥꜣ",
  "2408": "Ġnṯr(.ꞽ)Ġ=k",
  "2409": "Ġꞽt(ꞽ)Ġ=f",
  "2410": "Ġnṯr.PLĠnb",
  "2411": "Ġrp",
  "2412": "zꞽ",
  "2413": "-mšꜥ",
  "2414": "Ġꜣbw",
  "2415": "f.t",
  "2416": "Ġ=kĠs",
  "2417": "-sr",
  "2418": "Ġkꜣ(=ꞽ)-ḥ(w)",
  "2419": "Ġkꜣ(=ꞽ)-ḥ(w)i̯=f",
  "2420": "ĠꞽḫĠrḫ",
  "2421": "ĠꞽḫĠrḫĠ⸗kĠsw",
  "2422": "ĠꞽwĠ⸗twĠḥr",
  "2423": "ĠtꜣĠmr-sn",
  "2424": "ĠpꜣyĠ=fĠꜥḥꜥ",
  "2425": "-by",
  "2426": "Ġḫfṱ",
  "2427": "ĠmtwĠ=n",
  "2428": "Ġ(p",
  "2429": "ĠpꜣĠẖbs",
  "2430": "ĠpꜣyĠ=fĠꞽt.ṱ",
  "2431": "ĠpꜣĠntyĠꞽr",
  "2432": "ĠmyĠꞽrĠ=w",
  "2433": "Ġ=fĠm-ꞽr",
  "2434": "-sy",
  "2435": "Ġḥr-ꜣ",
  "2436": "Ġḥr-wḏꜣĠsꜣ",
  "2437": "Ġdny.tĠ1/4",
  "2438": "-b(y)n",
  "2439": "Ġḫtmw-nṯrĠwyt",
  "2440": "Ġpri̯.t",
  "2441": "Ġ(ꞽ)r(.ꞽ)-pꜥ(.t)",
  "2442": "Ġḥm.tĠ=fĠmr",
  "2443": ".ḫrĠ=kĠr",
  "2444": "Ġḥtp-",
  "2445": "Ġmḏḥ.w",
  "2446": "Ġšms.w",
  "2447": ".tꞽw",
  "2448": "ĠnĠp",
  "2449": "Ġꞽm.t",
  "2450": "Ġḥk",
  "2451": "Ġqrs.tĠ=fĠm",
  "2452": "Ġꞽsṯ",
  "2453": ".w.PLĠm",
  "2454": "Ġnṯ",
  "2455": "Ġrꜥ-nb",
  "2456": "Ġsꜣ.t",
  "2457": "Ġꜣg",
  "2458": "Ġḥr(.w)",
  "2459": "Ġḥr-ꞽ",
  "2460": "š.w",
  "2461": "Ġ=fĠꞽn",
  "2462": "Ġẖrꞽ",
  "2463": "Ġḏꜥ",
  "2464": "ĠprĠn",
  "2465": "Ġm-ḏr",
  "2466": "Ġ=fĠrḫ",
  "2467": "Ġsṯ(ꞽ)",
  "2468": "ĠpꜣĠꜥḥꜥ",
  "2469": "Ġꜥrq",
  "2470": "-šs",
  "2471": "~nꜣ",
  "2472": "ĠꞽwĠ⸗k",
  "2473": "hb",
  "2474": "-n-ꞽmn",
  "2475": "r-ꞽr",
  "2476": "Ġyꜥ",
  "2477": ".tĠm-sꜣ",
  "2478": "-ꞽ.ꞽr-dy-s",
  "2479": "ĠꞽĠdy",
  "2480": "Ġẖry",
  "2481": "ly",
  "2482": "Ġlk",
  "2483": "-ḥr-smꜣ-tꜣ.wy",
  "2484": "ĠtꜣyĠ=fĠm",
  "2485": "ĠwꜣḥĠ=y",
  "2486": "ĠtꜣyĠ=s",
  "2487": "Ġsꜣbꜣ",
  "2488": "ĠnꜣyĠ=fĠẖrd.ṱ.w",
  "2489": "Ġtws",
  "2490": "e(.t)",
  "2491": "Ġm-šm",
  "2492": "Ġsḏy",
  "2493": "ĠmtwĠ=s",
  "2494": "Ġšnw.t",
  "2495": "ĠhꜣĠ(w)sr(.w)",
  "2496": "ĠgmmĠ=k",
  "2497": "Ġḥwi̯",
  "2498": "Ġḫpš",
  "2499": "Ġmn.t",
  "2500": "Ġ=fĠm-bꜣḥ",
  "2501": "Ġspd",
  "2502": "Ġ=kĠꞽmĠ=s",
  "2503": "(my",
  "2504": "Ġwḥꜥ",
  "2505": "Ġꞽꜣwi̯(.w)",
  "2506": "Ġsḫꜣ",
  "2507": ".PLĠnb",
  "2508": "Ġ(ꞽ)m(.ꞽ)-r",
  "2509": "Ġ(ꞽ)m(.ꞽ)-r(ʾ)",
  "2510": "-ḥw(.t)",
  "2511": "ĠnĠ=ꞽ",
  "2512": "qd",
  "2513": "Ġnfr.(w)t",
  "2514": "Ġḥm(.t)-nṯr-ḥw.t-ḥr.w",
  "2515": "Ġššꞽ",
  "2516": "Ġḏd.ꞽnĠ=kĠrĠ=f",
  "2517": "Ġḏd.ꞽnĠ=kĠrĠ=fĠẖr.ꞽ",
  "2518": "Ġ(ꞽ)m(.ꞽ)-rʾ-p",
  "2519": "Ġsmr-",
  "2520": "Ġꞽyi̯.n",
  "2521": "ĠšsĠḫꜣĠmnḫ.tĠḫꜣ",
  "2522": "(.w)Ġn",
  "2523": "Ġꞽpn",
  "2524": "Ġḏnn.t",
  "2525": "Ġrk",
  "2526": "Ġꞽr.tĠ=f",
  "2527": "ĠnbĠrꜥw-nb",
  "2528": "Ġꞽmn-rꜥ",
  "2529": "Ġꜥ.wꞽ",
  "2530": "Ġḥqr",
  "2531": "Ġnṯr.w",
  "2532": "ĠtwĠr",
  "2533": "Ġꞽ.n",
  "2534": "ĠḥrĠꞽri̯.t",
  "2535": "Ġnby",
  "2536": "ĠḏdĠ=s",
  "2537": "ḥꜣ",
  "2538": "ĠnꜣyĠ⸗sn",
  "2539": "~mꜥ",
  "2540": "Ġwꜥ-n",
  "2541": "ĠpꜣĠk",
  "2542": "Ġḫr-ꞽr",
  "2543": "ꞽmn",
  "2544": "ĠpꜣĠntyĠḏd",
  "2545": "ĠḏdĠnĠ=s",
  "2546": "ĠtwĠ=n",
  "2547": "Ġmḥ-1",
  "2548": "Ġ=fĠrĠpꜣ",
  "2549": "Ġw(yꜣ)",
  "2550": "Ġ(pꜣ)",
  "2551": "ĠpꜣyĠ=sĠby",
  "2552": "ĠḥrĠsꜣĠpꜣ-dy-mn",
  "2553": "Ġꞽh̭",
  "2554": "lg",
  "2555": "-ḥꜣty",
  "2556": "Ġḥtp-nṯr",
  "2557": "ĠnꜣyĠ(=y)",
  "2558": "ĠꞽwĠ=wĠ(r)",
  "2559": "Ġḥꜣty.ṱĠ=k",
  "2560": "-wš",
  "2561": "Ġnty-ꞽwĠ=yĠšn",
  "2562": "Ġḥrḥ",
  "2563": "ĠꞽwĠbn-pwĠ=w",
  "2564": "Ġr.rĠ=s",
  "2565": "-zẖꜣ.w(w)-ꜥ",
  "2566": "-ḥr(.ꞽ)-ꞽb",
  "2567": "ĠsnĠ=f",
  "2568": ".tĠn.t",
  "2569": ".ꞽ)",
  "2570": "Ġkꜣ.t",
  "2571": "Ġpḏ",
  "2572": "Ġ=fĠnĠski̯",
  "2573": "Ġ(ꞽ)m.(ꞽ)",
  "2574": "Ġ(ꞽ)m.(ꞽ)-rʾ",
  "2575": "nꞽ",
  "2576": ".t.PLĠ=f",
  "2577": "Ġꞽ:ḫm",
  "2578": "-dw",
  "2579": "Ġḥtp-di̯",
  "2580": "Ġ=fĠm-ꜥ",
  "2581": "Ġpḥ.wꞽ",
  "2582": "(my.)t",
  "2583": "Ġpri̯.n",
  "2584": "Ġbb",
  "2585": "-nṯr.PL",
  "2586": ".wĠ=f",
  "2587": "Ġ=fĠnĠm(w)t",
  "2588": "-n.ꞽ",
  "2589": "Ġqm",
  "2590": "ss",
  "2591": "-(ꞽ)m",
  "2592": "ĠnbĠm",
  "2593": "ĠnṯrĠnb",
  "2594": "Ġrd.DU",
  "2595": "Ġmrḥ.t",
  "2596": "Ġḥtp-ḏꞽĠnswtĠḥtp-ḏꞽĠꞽnp.w",
  "2597": "ĠttꞽĠpw",
  "2598": "Ġwꜣḏ.t",
  "2599": "Ġ=fĠn(.ꞽ)",
  "2600": "Ġtwt",
  "2601": ".(y)t",
  "2602": "ĠḫprĠm",
  "2603": "ꜣ.w.PL",
  "2604": "Ġnbw",
  "2605": "-p.t",
  "2606": "Ġꜣtp",
  "2607": "Ġḏḥw.t",
  "2608": "-ws",
  "2609": "Ġẖnm.w",
  "2610": "Ġswḥ",
  "2611": "-mw.t",
  "2612": "Ġḥry.t",
  "2613": "~rw",
  "2614": "ĠtꜣyĠ⸗k",
  "2615": ".tĠnĠpꜣ",
  "2616": "ĠꞽrĠnꜣ",
  "2617": "-nbĠm-bꜣḥĠꜣr",
  "2618": "ĠpꜣyĠ=wĠwn",
  "2619": "-nsw-tꜣ.wy",
  "2620": "ĠḥnꜥĠnꜣ",
  "2621": "Ġ(n-)ṯꜣyĠpꜣ-hrwĠr-ḥry",
  "2622": "yĠn.ꞽmĠ=s",
  "2623": "Ġm-sꜣĠ=f",
  "2624": "Ġbn-ꞽwĠ=yĠrḫ",
  "2625": "Ġh̭m",
  "2626": "yĠnĠ=k",
  "2627": "ĠwsꞽrĠnĠḥrĠsꜣĠpꜣ-dy-mn",
  "2628": "Ġnty-ꞽw-ꞽw",
  "2629": "Ġr.ꞽm",
  "2630": "Ġḫpr=f",
  "2631": "=w-r=w",
  "2632": "Ġsmꜣ-tꜣ.wy",
  "2633": ".ḏ",
  "2634": "Ġꜣḥ.w",
  "2635": "Ġsmt",
  "2636": "ĠpꜣĠꜥꜣ-n-mr",
  "2637": "ĠꞽwĠ(=y)",
  "2638": "ĠḥnꜥĠtꜣ",
  "2639": "Ġmr.w",
  "2640": "Ġꜣ.t",
  "2641": "Ġꞽbꞽ",
  "2642": "Ġ(ꞽ)r(.ꞽt-ꞽ)ḫ.t-nswt",
  "2643": "ĠꞽbĠ=f",
  "2644": "Ġḥꜣ.t(ꞽ)",
  "2645": "Ġwṯz",
  "2646": "Ġḥr.wĠnꜥr-mr",
  "2647": ".ḫrĠ=kĠrĠ=s",
  "2648": "Ġꞽ:r",
  "2649": "tr.t",
  "2650": "Ġꞽr.t-ḥr(.w)",
  "2651": "-ttꞽ",
  "2652": ".wĠnĠ=f",
  "2653": "Ġꞽqr",
  "2654": "Ġsḫpr",
  "2655": "Ġry.t",
  "2656": "Ġꜥ.DU",
  "2657": "-zꜣb",
  "2658": "ḏ.w",
  "2659": "Ġꞽr(.ꞽ)",
  "2660": "Ġwꜣ.t.PLĠnfr.(w)t",
  "2661": "fr-ḥtp-ẖnm.w",
  "2662": "Ġ=fĠmꜣꜥ",
  "2663": "Ġnzw-bꞽ.tꞽ",
  "2664": "Ġwꜣs",
  "2665": "Ġ=kĠmdwĠn",
  "2666": "(ꜣ",
  "2667": "Ġmꞽn",
  "2668": "Ġꞽꜣ.t.PL",
  "2669": "ĠttꞽĠm",
  "2670": "-ẖn",
  "2671": "ĠpwĠr",
  "2672": "d(.t)",
  "2673": "Ġwḫ",
  "2674": "Ġm-m",
  "2675": "-n-tꜣ",
  "2676": "ĠḫprĠn",
  "2677": "-nḫ",
  "2678": "~n~rʾ",
  "2679": "Ġ⸗fĠn",
  "2680": "ĠꞽwĠ⸗st",
  "2681": "Ġpr-ꜥꜣĠꜥnḫ-wḏꜣ-snb",
  "2682": "ĠpꜣĠmw",
  "2683": "ĠtꜣĠdwꜣ.t",
  "2684": "Ġhry=w",
  "2685": "-hb",
  "2686": "Ġ1/3",
  "2687": "Ġwsꞽr-wr",
  "2688": "Ġpꜣ-bn",
  "2689": "ĠpꜣĠnṯrĠpꜣĠnty",
  "2690": "ĠẖnĠ=f",
  "2691": "ĠsꜣĠpꜣ-dy-ꞽtm",
  "2692": "Ġdy.tĠꞽrĠ=w",
  "2693": "Ġm-sẖ",
  "2694": "ĠḥrĠsꜣĠpꜣ",
  "2695": "Ġ=wĠnĠ=k",
  "2696": "ĠꞽwĠ=kĠḥs",
  "2697": "ṱ.w",
  "2698": "y(.t)",
  "2699": "Ġḥr-ḫb",
  "2700": "Ġꜣmy.t",
  "2701": "Ġwḏꜣ-s",
  "2702": "h-ꜥꜣ",
  "2703": "yṱ",
  "2704": "Ġꞽmn-m",
  "2705": "-ḥꜣb",
  "2706": "-rs",
  "2707": "ĠnhpĠwnꞽsĠpn",
  "2708": "Ġmḥr",
  "2709": "-pr-wr",
  "2710": "Ġḥtp-di̯-nswt",
  "2711": "Ġwpi̯-wꜣ.t.PL",
  "2712": "ĠhꜣĠppyĠpw",
  "2713": "Ġmsi̯",
  "2714": "Ġwr-",
  "2715": "Ġ=kĠpw",
  "2716": "Ġ=fĠmr.y",
  "2717": "Ġzmꜣ",
  "2718": "Ġsꜣb",
  "2719": "-(ꞽ)m(.ꞽ)",
  "2720": "Ġp.tĠn",
  "2721": "Ġwbn.wĠm",
  "2722": "-ꜥꜣ(.t)",
  "2723": "Ġnn-wn",
  "2724": "Ġꞽḫ.t",
  "2725": "Ġḥnk",
  "2726": "Ġmsꜣḏ.t",
  "2727": "Ġdmꞽ",
  "2728": "rg",
  "2729": "ꜣĠ=f",
  "2730": "Ġmrr(.w)",
  "2731": "Ġ=fĠꜥnḫĠwnꞽsĠpn",
  "2732": "Ġḥsi̯.t",
  "2733": "=(ꞽ)",
  "2734": "Ġsḫ.tꞽĠpn",
  "2735": "Ġꞽ:s",
  "2736": "-ꞽb-rꜥ",
  "2737": "ĠwꜥĠm",
  "2738": "Ġšt",
  "2739": "ĠmĠꞽb",
  "2740": "ĠrmṯĠnb",
  "2741": "ꜣn",
  "2742": "Ġšny",
  "2743": "Ġšꜣ~",
  "2744": "Ġ⸗snĠḥr",
  "2745": "Ġgmi̯Ġ⸗k",
  "2746": "Ġ⸗kĠpꜣ",
  "2747": "-nfr-ḥtp",
  "2748": "ĠnꜣyĠ⸗k",
  "2749": "Ġpꜣ-dy-ḫnsw",
  "2750": "ĠpꜣĠntyĠḏdĠn",
  "2751": "d.wy",
  "2752": "ĠꞽwĠbn-ꞽw",
  "2753": "Ġr-ḫrw",
  "2754": "ĠꞽwĠ=yĠrĠdy.t",
  "2755": "Ġwp-st",
  "2756": "Ġnꜣ-nfr",
  "2757": "-n-ꜣs.t",
  "2758": "ke",
  "2759": "ĠꞽnĠ=wĠs",
  "2760": "-l",
  "2761": "Ġr-ꞽwĠ=f",
  "2762": "Ġmnṱ",
  "2763": "ĠꞽrĠpyrĠn",
  "2764": "ĠẖnĠ=s",
  "2765": "-ḥy",
  "2766": "ĠꞽrĠnb.t-prĠta",
  "2767": "Ġnty-ꞽwĠ=wĠr",
  "2768": "Ġdy.tĠs",
  "2769": "ĠtꜣyĠ=fĠḥm.tĠnꜣyĠ=fĠẖrd.ṱ.w",
  "2770": "Ġptlwmy",
  "2771": "ĠsꜣĠꞽy-m-ḥtp",
  "2772": ".ꞽmĠ=f",
  "2773": "Ġmw.tĠ=fĠtꜣ-šr.t",
  "2774": "Ġwṱ",
  "2775": "ꜣbṱ",
  "2776": ".tĠmy",
  "2777": "el",
  "2778": "Ġwḏꜣ-smꜣ-tꜣ.wy",
  "2779": "-ꞽ.ꞽrĠ=k",
  "2780": "Ġ(ꞽ)m(.ꞽ)-rʾ-zẖꜣ.w(w)-ꜥ",
  "2781": "-(n-)nswt",
  "2782": "Ġꞽtꞽ",
  "2783": "Ġḏi̯.nĠnĠ=kĠḥr.w",
  "2784": "ĠnhpĠ=fĠnĠnhpĠwnꞽsĠpn",
  "2785": "i̯.nĠḥr.w",
  "2786": "Ġnḥb.tĠ=f",
  "2787": "Ġmsd",
  "2788": "Ġ=sĠnĠ=k",
  "2789": "Ġḥ(w)",
  "2790": "-ḫnt.w-š-pr-ꜥꜣ",
  "2791": "Ġḥm-nṯr-ḫwi̯=f-wꞽ",
  "2792": "-ꜣḫ.t",
  "2793": "Ġꞽꜣwi̯(.w)ĠnfrĠwr.t",
  "2794": "Ġhꜣi̯",
  "2795": "Ġꜥpr",
  "2796": "Ġꞽwr",
  "2797": "Ġrdi̯",
  "2798": "Ġtꜣ.tꞽ",
  "2799": "Ġtꜣ.tꞽ-zꜣb",
  "2800": "Ġtꜣ.tꞽ-zꜣb-ṯ",
  "2801": "-ꞽtꞽ",
  "2802": "ĠkꜣĠn",
  "2803": "Ġḥꜣ.tt",
  "2804": "šr.t",
  "2805": "-(ꞽ)m(.ꞽ)-rʾ",
  "2806": "Ġwrr.t",
  "2807": "Ġ=ꞽĠḥr",
  "2808": ".ꞽt",
  "2809": "-n-s",
  "2810": "Ġḏsr",
  "2811": "Ġwt.ḫrĠ=k",
  "2812": "Ġwt.ḫrĠ=kĠswĠḥr",
  "2813": "Ġdbn",
  "2814": "Ġnḥb",
  "2815": "Ġꞽꜣ.t",
  "2816": "Ġdꞽ",
  "2817": "Ġz.t",
  "2818": "ḏi̯",
  "2819": "Ġḥr.wĠn",
  "2820": "Ġm-dꞽ",
  "2821": "ĠṯwĠm",
  "2822": "Ġꜥꜣ.DU",
  "2823": "Ġḏd.w",
  "2824": "r-ꞽnp.w",
  "2825": "Ġmḥ.w",
  "2826": "Ġ=fĠnĠ=f",
  "2827": "Ġrš",
  "2828": "hr",
  "2829": "Ġ=kĠmḥ",
  "2830": "Ġ=snĠm",
  "2831": "ĠmĠhrw",
  "2832": "ĠnĠ=fĠr",
  "2833": "Ġsrf",
  "2834": "ĠrĠpr",
  "2835": "-ꞽqr",
  "2836": "Ġwp.tĠn",
  "2837": "Ġr-ḏd",
  "2838": "ĠꞽwĠr",
  "2839": "Ġḫns.w",
  "2840": "wĠ⸗f",
  "2841": "Ġ⸗ꞽĠn",
  "2842": "Ġtw⸗tw",
  "2843": "ĠḥmĠ⸗f",
  "2844": "Ġ⸗sst",
  "2845": "yĠḏd",
  "2846": "-n-m",
  "2847": "ĠpꜣĠnty-ꞽwĠ=fĠ(r)",
  "2848": "ĠntyĠꞽr",
  "2849": "Ġḥr-t",
  "2850": "ĠpꜣĠsp",
  "2851": "Ġnty-ꞽwĠpꜣ",
  "2852": "ĠꜥnĠsp-2",
  "2853": "Ġḏl",
  "2854": "ĠmyĠḥnĠ=wĠs",
  "2855": "ĠꞽwĠ=fĠ(r)",
  "2856": "Ġswṱ",
  "2857": "ĠsꜣĠḏd-ḥr",
  "2858": "ĠꞽwĠ=wĠꞽr",
  "2859": "Ġsbk-nb-pay",
  "2860": "-tꜣy=f-nḫt.ṱ",
  "2861": "Ġql",
  "2862": "ĠmtwĠ=tn",
  "2863": "-rmṯ",
  "2864": "ĠsꜣĠpꜣ-šr-",
  "2865": "Ġmḥ-2",
  "2866": "ĠnḥḥĠḏ.t",
  "2867": "-nḏ-ꞽt=f",
  "2868": "ĠnꜣĠsẖ.w",
  "2869": "ĠbyĠn",
  "2870": "Ġ=wĠpꜣ",
  "2871": "ĠnꜣĠꞽ.ꞽr",
  "2872": "Ġke",
  "2873": "ĠꞽwĠ=fĠꞽr",
  "2874": "Ġwsꞽr-ḥpĠpꜣĠnṯr-ꜥꜣ",
  "2875": "Ġrmṯ-ꜥꜣ",
  "2876": "Ġšꜥ-tw",
  "2877": "r-ꞽꜣbṱ",
  "2878": "ĠpꜣĠwyn",
  "2879": "qws",
  "2880": "Ġpꜣ-dy-w",
  "2881": "Ġfy(.t)-tn",
  "2882": "Ġꞽw-ꞽw",
  "2883": "Ġꞽ.ꞽrĠ=kĠꜥš",
  "2884": "synꜣ",
  "2885": "ĠrʾĠ=k",
  "2886": "Ġḫrp-ḥr(.ꞽ)-ꞽb",
  "2887": "Ġsꞽꜣ",
  "2888": "ĠꜥnḫĠm",
  "2889": "fꜣ",
  "2890": "Ġqbḥ(.w)",
  "2891": "Ġptr",
  "2892": "Ġ=kĠḫnt",
  "2893": "Ġski̯Ġ=fĠnĠski̯",
  "2894": "Ġnb-ꜣbḏ",
  "2895": "Ġꞽm(.ꞽ)Ġ=k",
  "2896": "-sḏr-kꜣ",
  "2897": "-sḫ",
  "2898": "Ġ=ṯn(ꞽ)Ġꞽm",
  "2899": "Ġ(w)sꞽrĠwnꞽsĠmĠnĠ=kĠꞽr.t-ḥr(.w)",
  "2900": "bꜣ.w",
  "2901": "Ġꞽ:ḫ",
  "2902": "Ġfn",
  "2903": "Ġrr",
  "2904": "Ġ(m",
  "2905": "Ġsr.w.PL",
  "2906": "Ġzꜣ.tĠ=f",
  "2907": "ĠꞽpĠ=f",
  "2908": "Ġnꜣ-n",
  "2909": "Ġtꜣ.tꞽ-zꜣb-ṯꜣ.tꞽ",
  "2910": "ĠnĠnṯr",
  "2911": "Ġꞽmi̯Ġ=k",
  "2912": "Ġꞽd.t",
  "2913": "-sḫm.DU",
  "2914": ".wĠnĠ=k",
  "2915": ".nĠwnꞽs",
  "2916": "ĠmĠꜥ",
  "2917": "Ġꜥnḫ.t",
  "2918": "ĠꞽwĠ=fĠn",
  "2919": "ptḥ",
  "2920": "Ġ=fĠpw",
  "2921": "Ġbꜥḥ",
  "2922": "Ġḥr.wĠm",
  "2923": "ĠrnĠn(.ꞽ)",
  "2924": "Ġ(ꞽ)ḫ.tĠnb(.t)",
  "2925": "Ġnṯr(.ꞽ)Ġ=kĠnṯr(.ꞽ)",
  "2926": "ĠḫrĠnṯr-ꜥꜣ",
  "2927": "Ġmrr(.w)-nb=f",
  "2928": "Ġmnꞽ.w",
  "2929": "Ġwḏꜣ.t",
  "2930": "ĠwḏĠ=kĠmdwĠn",
  "2931": "-n.t-nswt",
  "2932": "ĠhꜣĠwnꞽs",
  "2933": "Ġpšn",
  "2934": "ĠꜥnḫĠ=fĠꜥnḫĠwnꞽsĠpn",
  "2935": "Ġthm",
  "2936": "Ġ=fĠmĠḥtp",
  "2937": "tk",
  "2938": "Ġ=fĠs(ꞽ)",
  "2939": "Ġꞽn-ꞽw",
  "2940": "t.PL",
  "2941": "Ġqnb.t",
  "2942": "Ġšnꜥ",
  "2943": "ĠnĠmꜣꜥ.t",
  "2944": "ĠmĠẖr",
  "2945": "ĠꞽĠꜥnḫ",
  "2946": "ĠhnĠn",
  "2947": "-ꞽḥ.t",
  "2948": "ĠnĠpꜣ-rꜥ",
  "2949": "ĠḫrĠꞽr",
  "2950": "wꜣ~",
  "2951": "Ġḥꜥ.t",
  "2952": "Ġ⸗fĠsw",
  "2953": "ĠnĠꜣs.t",
  "2954": "qm",
  "2955": "ĠḏrĠ=f",
  "2956": "Ġbrn",
  "2957": "-(n-)sbk",
  "2958": "ĠqyĠpꜣyĠ=fĠꜥḥꜥ",
  "2959": "ĠꞽwtyĠmn",
  "2960": "ĠstĠšsp",
  "2961": "ĠꞽwĠ=wĠḏd",
  "2962": "yĠn.ꞽmĠ=f",
  "2963": "Ġtẖ",
  "2964": "Ġhwš",
  "2965": "Ġn.ꞽmĠ=y",
  "2966": "-ḥꜥpy",
  "2967": "ĠpꜣyĠ=fĠꜥ.wy",
  "2968": "ĠmnĠdy",
  "2969": "Ġḥm-nṯr-n-ꞽmn",
  "2970": "Ġmd.t-nfr.t",
  "2971": "Ġꞽr-rꜥĠnby",
  "2972": "(y)n.t",
  "2973": "ĠrnĠ=y",
  "2974": "Ġls",
  "2975": "ĠnꜣĠmd(.t).w",
  "2976": "-ẖrd.ṱ",
  "2977": "Ġsḏe",
  "2978": "ĠsꜣĠꞽr.t-ḥr-r.r=w",
  "2979": "ĠḏdĠ=fĠnĠ=f",
  "2980": "ĠpꜣyĠ=kĠby",
  "2981": "ĠsꜣĠpꜣ-dy-ꜣs.t",
  "2982": "Ġmd.t-n-ꜥḏ",
  "2983": "Ġhe",
  "2984": ".ṱĠ=t",
  "2985": "(my).tĠꞽmn.t(ꞽ).t",
  "2986": "Ġꜥwn",
  "2987": "Ġꞽwꜥ",
  "2988": "Ġḏꜥw",
  "2989": ".w(ꞽ)",
  "2990": "ĠꞽsĠḫnt(.ꞽ)",
  "2991": "Ġrḏw",
  "2992": "ĠnĠn",
  "2993": "Ġ(ꞽ)m.(ꞽ)-rʾ-pr-wr",
  "2994": "Ġḥr.t",
  "2995": "-ḫtm.t",
  "2996": "ĠtwĠm",
  "2997": ".tĠmꜣ",
  "2998": "Ġwh",
  "2999": "Ġꞽmn.tꞽ",
  "3000": "pꞽ",
  "3001": "Ġzbn",
  "3002": "mm",
  "3003": "Ġgmi̯.n",
  "3004": "Ġ=fĠmꞽ",
  "3005": "Ġmsi̯.t",
  "3006": "ṯ.t",
  "3007": "Ġzꜣu̯",
  "3008": "Ġn(.ꞽ)-nṯr",
  "3009": "Ġdi̯.n",
  "3010": "Ġšmi̯",
  "3011": "Ġnfr-sšm-rꜥw",
  "3012": "ĠꞽrĠm",
  "3013": "Ġzꜣb-(ꞽ)m(.ꞽ)-rʾ",
  "3014": "Ġꞽk",
  "3015": "Ġsšr",
  "3016": "Ġꞽri̯.yĠ=ꞽ",
  "3017": "Ġgꜣu̯",
  "3018": "Ġ=kĠnw.t",
  "3019": "Ġdd",
  "3020": "-zkr",
  "3021": "Ġsꜥḥꜥ",
  "3022": "Ġzw",
  "3023": ".wĠnn",
  "3024": "Ġḥn.wt",
  "3025": "Ġꞽꜣw",
  "3026": "Ġꞽwn.t",
  "3027": "Ġzḫn.w",
  "3028": "pĠn",
  "3029": "dn",
  "3030": "Ġꞽꜣm",
  "3031": "Ġḏḥw.t(y)t",
  "3032": "s.tꞽ",
  "3033": "Ġꞽwi̯.t",
  "3034": "-nfr-ꞽ",
  "3035": "-nh",
  "3036": "ĠḥrĠswḏꜣ",
  "3037": "ĠrĠḏd",
  "3038": ".wĠḫr",
  "3039": "ĠpḥĠ=fĠr",
  "3040": "Ġšꜣꜥ",
  "3041": "wꜥ",
  "3042": "Ġsbq",
  "3043": "qĠn",
  "3044": "Ġmsḥ",
  "3045": "Ġsny",
  "3046": "Ġpꜣꞽ",
  "3047": "⸗f",
  "3048": "Ġꞽri̯.yĠ⸗k",
  "3049": ".wĠnĠnꜣ",
  "3050": ".y.PL",
  "3051": "Ġ⸗t",
  "3052": "Ġꞽ:ꞽri̯Ġ⸗k",
  "3053": "ĠḥmĠ⸗fĠꜥnḫ-wḏꜣ-snb",
  "3054": "-ṯꜣy",
  "3055": "Ġ⸗kꞽ",
  "3056": "Ġrnn.t",
  "3057": "ym",
  "3058": "ĠpꜣĠy",
  "3059": "Ġꜥs",
  "3060": "Ġsty",
  "3061": "ĠtꜣĠmw.t",
  "3062": "ĠḏdĠ=y",
  "3063": "-ḥr-pꜣ-ẖrd",
  "3064": "ĠwyĠ=fĠr.r",
  "3065": "ĠꞽwĠ=yĠwꜥb",
  "3066": "ĠꞽwĠ=yĠwꜥb.k",
  "3067": "Ġꞽnky",
  "3068": "Ġpay",
  "3069": "ĠnĠpꜣĠꜥ.wy",
  "3070": "Ġḥsy",
  "3071": "Ġḏd-bꜣst.t",
  "3072": "Ġḏd-bꜣst.t-ꞽw=f-ꜥnḫ",
  "3073": "Ġꜥw-n",
  "3074": "-nty-pr",
  "3075": "Ġꞽ.ꞽrĠ=y",
  "3076": "ĠtꜣĠdny.t",
  "3077": "Ġḥr-m-ḥb",
  "3078": "ĠpꜣyĠ=(y)Ġꜥ.wy",
  "3079": "Ġꞽꜥḥ-ms",
  "3080": "-ꜥšꜣ",
  "3081": "Ġpꜣ-dy-ꜣs.tĠsꜣĠꞽr.t",
  "3082": "Ġpꜣ-dy-ꜣs.tĠsꜣĠꞽr.t=w-r=w",
  "3083": "Ġqbṱ",
  "3084": "Ġtꜣ-šr",
  "3085": "ĠpꜣyĠ=fĠḥry",
  "3086": "ĠpꜣĠwr-ꞽꜣbṱ",
  "3087": "ĠrĠpꜣĠmꜣꜥĠnty-ꞽw",
  "3088": "Ġpꜣ-ꜥẖm",
  "3089": "ĠtwtwĠn",
  "3090": "Ġqdy",
  "3091": "ḏḥwty",
  "3092": "ꜥ(m)",
  "3093": "-rꜣ",
  "3094": "-nfrĠsꜣ",
  "3095": "(.tꞽ)",
  "3096": "Ġdšr",
  "3097": "Ġmd.tĠn",
  "3098": "-ḥw.t-ḥr.w",
  "3099": "-(n-)ꜣ",
  "3100": ".wĠtꜣ",
  "3101": "t.w",
  "3102": "Ġ(w)sr(.w)Ġn(ꞽ).tĠmĠnĠ=k",
  "3103": "Ġski̯Ġ=fĠnĠski̯ĠwnꞽsĠpn",
  "3104": "Ġpsḏ.t.DU",
  "3105": "Ġꞽm.ꞽ-wtĠnb-tꜣ-ḏsr",
  "3106": "ꜥrĠn",
  "3107": "Ġbḥ",
  "3108": "Ġwdp.w",
  "3109": "Ġwdi̯",
  "3110": "Ġꜣḫ.tĠn",
  "3111": "Ġp(w)",
  "3112": "ĠẖrĠ=k",
  "3113": "Ġꞽnn",
  "3114": "ĠnĠ=kĠgbb",
  "3115": "Ġṯꜣz",
  "3116": "-tꜣ.wꞽ",
  "3117": "ḏm",
  "3118": "Ġ=fĠnĠm(w)tĠwnꞽsĠpn",
  "3119": "Ġ(ꞽ)m(.ꞽ)-rʾ-sšr",
  "3120": "Ġsfḫ",
  "3121": "Ġṯr",
  "3122": "ĠmĠpr",
  "3123": "Ġḥkn.w",
  "3124": "ft",
  "3125": "Ġꞽmn.tt",
  "3126": "-n-ptḥ",
  "3127": "Ġ(ꞽ)m(.ꞽ)-rʾ-pr-ḥw.t",
  "3128": "ĠrnĠmꜣ-ḥḏ",
  "3129": "-pš",
  "3130": ".tĠ=k",
  "3131": "Ġ=kĠḫr",
  "3132": "Ġkꜣꞽ",
  "3133": "Ġḏw.t",
  "3134": "-(ꞽ)r",
  "3135": "Ġꞽni̯.n",
  "3136": "Ġmri̯.y",
  "3137": "Ġtḫb",
  "3138": "šw",
  "3139": "-ḥtp(.w)",
  "3140": "Ġn.ꞽ-sw",
  "3141": "Ġwpi̯-rnp.t",
  "3142": "ĠḥꜣbĠnbĠrꜥw-nb",
  "3143": "Ġdp.t",
  "3144": "ĠrʾĠn(.ꞽ)",
  "3145": "(n)ḏ",
  "3146": "rꞽ",
  "3147": ".tĠr",
  "3148": "Ġmk",
  "3149": "hw",
  "3150": "Ġpꜥ",
  "3151": "ꜣ.wĠn",
  "3152": "ĠmĠpꜣ",
  "3153": "Ġwnš",
  "3154": "Ġꞽṯꜣ",
  "3155": "Ġꞽg",
  "3156": "Ġm-sꜣĠnꜣ",
  "3157": "Ġthꜣ",
  "3158": "ĠpꜣyĠ⸗fĠsn",
  "3159": "hꜣ~",
  "3160": "~bw",
  "3161": "-bꜣk",
  "3162": "-n-pꜣ",
  "3163": "Ġbwꜣ",
  "3164": "ĠꞽrmĠ=t",
  "3165": "Ġ1/2",
  "3166": "Ġ(sꜣ)Ġpa",
  "3167": "-mꜣy",
  "3168": "-ꞽpy",
  "3169": "ĠnĠsḥm.t",
  "3170": "Ġns-mn",
  "3171": "ĠsꜣĠpꜣ-",
  "3172": "-pḥṱ",
  "3173": "Ġs-n",
  "3174": "ĠḏdĠpꜣ",
  "3175": "Ġbn-ꞽwĠ=w",
  "3176": "Ġẖe.t",
  "3177": "Ġḥꜣty.ṱĠ=y",
  "3178": "ĠḏdĠr.ꞽnk",
  "3179": "-rd.wy",
  "3180": "ĠꞽrĠ=t",
  "3181": "ĠpꜣĠmr-mšꜥ",
  "3182": "Ġḥṱ",
  "3183": "-sn.wĠnꜣĠnṯr.w",
  "3184": "ĠpꜣĠnb-nṯr.w",
  "3185": "ĠšspĠ=w",
  "3186": "Ġẖdy",
  "3187": "-nꜥ",
  "3188": "ĠdyĠ=k",
  "3189": "-nše",
  "3190": "ĠꞽwĠnĠ=t",
  "3191": "ĠwꜣḥĠr",
  "3192": "-(n-)wsꞽr-ḥp",
  "3193": "ĠrĠkmy",
  "3194": "-ḥ.t-nṯr",
  "3195": "ĠpꜣĠwr-ꞽꜣbṱĠpꜣ-",
  "3196": "Ġꞽmy.t",
  "3197": "ĠpꜣĠnṯr-ꜥꜣĠnb",
  "3198": "Ġ=fĠr.r",
  "3199": "Ġlg",
  "3200": "Ġbl",
  "3201": "Ġn.ꞽmĠ=n",
  "3202": "ĠḫꜣĠm",
  "3203": "hn",
  "3204": "hpĠwnꞽsĠpn",
  "3205": ".t(ꞽ).w",
  "3206": "Ġnḥb.t",
  "3207": "Ġnbs",
  "3208": "Ġspd.t",
  "3209": "Ġzb",
  "3210": "Ġꞽnḥ",
  "3211": "Ġḫnms",
  "3212": "Ġpr-ḏ.t",
  "3213": "bꜣ.w-ptḥ",
  "3214": "ĠbꜣĠ=k",
  "3215": "Ġḥtp-n(=ꞽ)",
  "3216": "Ġsqr",
  "3217": ".ꞽw",
  "3218": "ĠšzpĠnĠ=k",
  "3219": "Ġnb.t-ḥw(.t)",
  "3220": "ĠnĠnb",
  "3221": "-ꞽtꞽ=s",
  "3222": "ĠwsꞽrĠnb-ḏd.w",
  "3223": "Ġꜣw.t",
  "3224": "Ġrn-nfr",
  "3225": "Ġsn.nw",
  "3226": "Ġtkn",
  "3227": "ĠnĠḏ.t",
  "3228": "ĠzꜣĠ=fĠn",
  "3229": "ĠṯwtĠwr",
  "3230": "ḫĠnĠ=k",
  "3231": "Ġḥw.t-nṯr",
  "3232": "Ġsḥḏ-(ꞽ)r",
  "3233": "ĠḫprĠnĠ=k",
  "3234": "Ġḥw.t-kꜣ-ḥr.w",
  "3235": ".ꞽ.t",
  "3236": "Ġqsn",
  "3237": "mw",
  "3238": "Ġḥr-ꞽb",
  "3239": "Ġ=fĠwn",
  "3240": "Ġḫtm.w-bꞽ.tꞽ",
  "3241": "-rnp.tĠwꜣg",
  "3242": "Ġẖr.ꞽ-ḥ(ꜣ)b(.t)",
  "3243": "-kꜣ.w",
  "3244": "Ġsmd.t",
  "3245": "Ġꞽr-",
  "3246": "Ġms.w",
  "3247": "-ẖ.t=f",
  "3248": "-ꞽnp.w",
  "3249": "Ġꞽꜥi̯",
  "3250": "šf",
  "3251": "Ġ=kĠꞽpn",
  "3252": "-n-pr-ꜥꜣ",
  "3253": "ĠḫprĠr",
  "3254": "Ġ=fĠtꜣ",
  "3255": "Ġdwꜣ.w",
  "3256": "ḫy",
  "3257": "Ġmẖ",
  "3258": "ĠrĠpꜣy",
  "3259": "Ġ=fĠẖn",
  "3260": "Ġšꜥd",
  "3261": "Ġsnḥ",
  "3262": "yĠr",
  "3263": "ĠrĠ⸗k",
  "3264": "wĠnĠ⸗k",
  "3265": "~rʾ~",
  "3266": ".tĠm-ꞽr",
  "3267": "wĠ⸗k",
  "3268": "ĠnktĠn",
  "3269": "Ġšbn",
  "3270": "ĠpꜣĠšm",
  "3271": "Ġm-ḏr.t",
  "3272": "Ġr.ḥrĠ=t",
  "3273": "Ġmd(.t)ĠnbĠnĠpꜣĠtꜣĠꞽ.ꞽr-n",
  "3274": "Ġpa-r",
  "3275": "Ġḥr-pꜣ",
  "3276": "Ġbn-ꞽwĠrḫ",
  "3277": "Ġḫl",
  "3278": "Ġhmy",
  "3279": "Ġꜥꜥ",
  "3280": "ṯk",
  "3281": "ĠpꜣĠntyĠmr",
  "3282": "Ġnꜣy-ḥr",
  "3283": "ĠsꜣĠpꜣ-dy-wsꞽr",
  "3284": "Ġdny.tĠ1/3",
  "3285": "-pꜣ-s",
  "3286": "Ġrwš",
  "3287": "nĠnĠ=y",
  "3288": "Ġkṱ",
  "3289": "-mr-ꞽt.ṱ",
  "3290": "Ġꞽꜣb(ṱ)",
  "3291": "-ḥꜣty.ṱ",
  "3292": "ĠpꜣĠšr",
  "3293": "-swg",
  "3294": ".ṱĠ=kĠn",
  "3295": "Ġbn-pwĠ=yĠꞽr",
  "3296": "Ġ=wĠnĠ=w",
  "3297": "ĠḏdĠnĠ=fĠpr-ꜥꜣ",
  "3298": "ĠḥrĠsꜣĠpꜣ-nše",
  "3299": "Ġꜥ.wy-n",
  "3300": "Ġẖr.ꞽr",
  "3301": "Ġr.ꞽnp",
  "3302": "kh",
  "3303": "Ġꞽmn(ṱ)",
  "3304": "Ġꞽbt",
  "3305": "Ġšdy",
  "3306": "ĠpꜣyĠ=wĠhp",
  "3307": "Ġpꜣ-šy",
  "3308": "Ġꞽ.ꞽr-ḥrĠ=k",
  "3309": "-nsw-nṯr.w",
  "3310": "ĠḥnꜥĠtꜣĠdny.tĠ1/4",
  "3311": "Ġ=sĠḏd",
  "3312": "Ġꜥ.wyĠn",
  "3313": "Ġḫrw-bꜣk",
  "3314": "Ġm-qdy.t",
  "3315": "Ġfy(.t)-tn-nbĠm-bꜣḥĠꜣr",
  "3316": "ĠpꜣyĠ=fĠbyĠrĠšms",
  "3317": "Ġnty-nbĠnkt",
  "3318": "Ġnḥṱ",
  "3319": "-ḥbs",
  "3320": "Ġb(y)n",
  "3321": "Ġ(n)Ġkmy",
  "3322": ".tĠmꞽ",
  "3323": "Ġḥt(m)",
  "3324": "Ġwrš",
  "3325": "ĠḥsbĠm",
  "3326": "ꜣ(.t)",
  "3327": "Ġfnḏ",
  "3328": "Ġzꜣ.t-nswt",
  "3329": "-kꜣ.t-nb.t",
  "3330": "Ġsḏb",
  "3331": "Ġmz",
  "3332": "Ġꜥnḫ-kꜣ(=ꞽ)",
  "3333": "Ġsmr-wꜥ.tꞽĠẖr(.ꞽ)-ḥ(ꜣ)b(.t)",
  "3334": "Ġḥr(.ꞽ)-sštꜣ",
  "3335": "Ġpnꜥ",
  "3336": "Ġ=fĠnĠ=k",
  "3337": "ĠppyĠpn",
  "3338": "Ġsꜣḥ",
  "3339": "ĠzꜣĠ=fĠmr.y",
  "3340": "Ġḥḏ.w",
  "3341": "Ġwsḫ.t",
  "3342": "Ġqs.PL",
  "3343": "ĠsnĠn",
  "3344": "Ġmtw.t",
  "3345": "wi̯=f-w(ꞽ)",
  "3346": "ṯ.w",
  "3347": "Ġḥr.wĠḥtp-sḫm.DU",
  "3348": "tw.t",
  "3349": "ẖ.t",
  "3350": "Ġfꜣi̯",
  "3351": "Ġ=t(w)",
  "3352": "Ġnḥs",
  "3353": "Ġqs.PLĠ=k",
  "3354": "ĠꞽrĠ=fĠm",
  "3355": "Ġqꜣ-ꜥ-nb.tꞽ",
  "3356": "Ġsḥḏ-(ꞽ)r(.w",
  "3357": "Ġ(ꞽ)m(.ꞽ)-rʾ-w",
  "3358": "Ġꞽ:m",
  "3359": "Ġꜣgb",
  "3360": "Ġr(m)ṯ.PL",
  "3361": "ḥ.w-rꜥw",
  "3362": "ĠnĠ=n",
  "3363": "Ġ=fĠst",
  "3364": "Ġꞽḥ.PL",
  "3365": "Ġpr.w",
  "3366": "Ġsḏr.t",
  "3367": "Ġꞽb.PL",
  "3368": "ĠppyĠnfr-kꜣ-rꜥwĠpn",
  "3369": "Ġnḏnḏ",
  "3370": "Ġ=kĠḥnꜥ",
  "3371": "Ġr-gs",
  "3372": "mꞽ",
  "3373": ".ṯ",
  "3374": "i̯.tꞽ",
  "3375": "Ġꜣt",
  "3376": "-nḫn",
  "3377": "-nm",
  "3378": "Ġbꜥ",
  "3379": "ĠnĠ=tn",
  "3380": ".tĠnfr.t",
  "3381": "ĠwšbĠn",
  "3382": "Ġwbn.wĠpf",
  "3383": "-3",
  "3384": "Ġkꜣ(=ꞽ)-ḥ(w)i̯=fĠn",
  "3385": "wḥ",
  "3386": "-ḥr.w-ꜣḫ.tꞽ",
  "3387": "Ġtw⸗twĠḥr",
  "3388": "Ġ⸗ꞽĠḥr",
  "3389": "Ġwḫꜣḫ",
  "3390": "Ġḥtrꞽ",
  "3391": "Ġgꜣ~",
  "3392": "Ġhꜣy",
  "3393": "ĠḥrĠswḏꜣĠꞽbĠn",
  "3394": "-ḏꜣ",
  "3395": "Ġtḥ",
  "3396": "ĠpꜣĠmꜣꜥ",
  "3397": "ĠwyĠ=fĠr.ḥr",
  "3398": "-ḏr.ṱĠ=f",
  "3399": "Ġnḫṱ",
  "3400": "ĠtꜣĠšr.t",
  "3401": ".ṱĠ=fĠr",
  "3402": "Ġꜣy",
  "3403": "-s-n-m",
  "3404": "-s-n-mṯk",
  "3405": "Ġ=yĠr",
  "3406": "ĠrꜣĠ=y",
  "3407": "Ġꞽr-rḫĠs",
  "3408": "ĠḫrĠꞽrĠ=f",
  "3409": "ĠꞽwĠ=yĠrĠšꜥ",
  "3410": "ĠpꜣyĠ=fĠm",
  "3411": "ĠꞽhyĠnĠ=k",
  "3412": "hw.t",
  "3413": "Ġsꜣ-wsꞽr",
  "3414": "Ġḏnf",
  "3415": "Ġꞽ.ꞽr-ḥr-n",
  "3416": "Ġẖr-hrw",
  "3417": "Ġꜥꜣ-ꜥꜣ",
  "3418": "ĠnbĠḫmnw",
  "3419": "-10",
  "3420": "ĠꞽwĠ=fĠwꜥb",
  "3421": "Ġwbe",
  "3422": "Ġḥr-ꜣt",
  "3423": "ĠꞽwĠ=kĠḥsĠm-bꜣḥ",
  "3424": "Ġmd.tĠnbĠnty-ꞽwĠ=yĠšn",
  "3425": "-(n-)wsꞽr-ḥpĠpꜣĠnṯr-ꜥꜣ",
  "3426": "r-rw.t",
  "3427": "Ġpa-mnṱ",
  "3428": "ĠpꜣĠẖl",
  "3429": "ĠpꜣyĠ=kĠꜥ.wy",
  "3430": "ĠnꜣĠnṯr.wĠn",
  "3431": "Ġ2/",
  "3432": "Ġ2/3",
  "3433": "eĠr",
  "3434": "Ġꜣs.t-wr",
  "3435": "Ġmd.t-mꜣꜥ.t",
  "3436": "-qn",
  "3437": "ĠpꜣĠsr",
  "3438": "Ġsmꜣ-tꜣ.wy-tꜣy=f-nḫt.ṱ",
  "3439": "Ġrꜥ-qd",
  "3440": "Ġꞽ.ꞽrĠ=t",
  "3441": "ĠgyĠn",
  "3442": "Ġꞽr.t.ṱĠ=f",
  "3443": ".wĠnty-ꞽw",
  "3444": "Ġm-ꞽrĠḏd",
  "3445": "Ġqrs.t(ꞽ)",
  "3446": "Ġsp.t",
  "3447": "Ġ(ꞽ)m(.ꞽ)-rʾ-ḥm(.w)-kꜣ",
  "3448": "ĠḥꜣĠ=k",
  "3449": "Ġtꜣ-wr",
  "3450": "Ġṯ(ꜣ)zĠn(.ꞽ)",
  "3451": "rr",
  "3452": "Ġ=ṯĠm",
  "3453": "Ġgr.t",
  "3454": "Ġꞽw.tꞽ",
  "3455": "Ġ(ꞽ)ꜥrĠn",
  "3456": "Ġmnḫ.tĠḫꜣĠšsĠḫꜣ",
  "3457": "Ġḫft(.ꞽ)Ġ=k",
  "3458": "Ġqrs(.w)",
  "3459": "ĠnfrĠm",
  "3460": "Ġḏ.tĠn",
  "3461": "Ġzḫn",
  "3462": "ĠpznĠḫꜣ",
  "3463": "Ġꜥ.DUĠ=k",
  "3464": "ĠꞽnĠꞽw",
  "3465": "Ġ=ꞽĠr",
  "3466": "Ġwbn.wĠn(.ꞽ)",
  "3467": "Ġwbn.wĠn(.ꞽ)Ġkf",
  "3468": "Ġrḫ.yt",
  "3469": "ĠnĠm(w)t",
  "3470": "Ġꞽmꜣḫ.w-ḫr-nb=f",
  "3471": "-ḫnt.ꞽ",
  "3472": "ĠppyĠnfr-kꜣ-rꜥwĠpw",
  "3473": "ĠnĠrḫ",
  "3474": ".w.PLĠn.w",
  "3475": "Ġḫpp",
  "3476": "Ġḥr-bḥ",
  "3477": "Ġzꜣb-(ꞽ)m(.ꞽ)-rʾ-zẖꜣ.ww",
  "3478": "Ġꞽri̯.t.n",
  "3479": "Ġḥr.wĠsmr-",
  "3480": "-ꞽḥ",
  "3481": "Ġmrr.w",
  "3482": "Ġ(w)sr(.w)Ġn(ꞽ).tĠmꞽ",
  "3483": "Ġdb",
  "3484": "Ġzwn.w",
  "3485": "-šp",
  "3486": "Ġꞽri̯Ġ=k",
  "3487": "Ġẖꜣ",
  "3488": "Ġrḏi̯.nĠḥr.w",
  "3489": "Ġꜥꜣi̯",
  "3490": "Ġnfr-nswt",
  "3491": "Ġsnꜥꜥ",
  "3492": ".w.PLĠ=f",
  "3493": "Ġtp.ꞽ-rnp.tĠwꜣg",
  "3494": "-mnw",
  "3495": "Ġ=kĠnn",
  "3496": "Ġbš",
  "3497": "Ġwnm.t",
  "3498": "ĠnĠwꜥ",
  "3499": "Ġḏꜥm",
  "3500": "gs",
  "3501": "Ġwsr.t",
  "3502": "-wr.w",
  "3503": "gm",
  "3504": "Ġḥs.t",
  "3505": "rꜣ",
  "3506": "ĠnĠ=kĠtꜣ",
  "3507": "Ġꜣyt",
  "3508": "Ġꜥḥꜥ.w",
  "3509": "ĠmĠꜥnḫ",
  "3510": "ĠꞽwĠ=sĠr",
  "3511": "-wꜣs.t",
  "3512": "ĠswĠmꞽ",
  "3513": "ks",
  "3514": "Ġḥsmn",
  "3515": "ĠḏdĠꞽn",
  "3516": "ĠmyĠn",
  "3517": "ĠtꜣĠps",
  "3518": "ḥḥ",
  "3519": "Ġkꜣ(=ꞽ)-ḥ(w)i̯=fĠnĠkꜣ(=ꞽ)-ḥ(w)i̯=fĠn",
  "3520": "Ġtwy",
  "3521": "-ḥr.w-ꜣḫ.tꞽ.DU",
  "3522": "ĠꞽwĠ⸗ꞽĠr",
  "3523": "ĠhꜣbĠpwĠr",
  "3524": "ĠrḫĠpꜣyĠ⸗ꞽĠnb",
  "3525": "Ġwn.ꞽnĠ⸗fĠḥr",
  "3526": ".ṱĠm",
  "3527": "ĠꞽwĠtꜣ",
  "3528": "yꜣ",
  "3529": "Ġ⸗fĠmꞽ",
  "3530": "Ġqn.w",
  "3531": "ĠbwĠrḫ",
  "3532": "Ġ⸗fĠnb",
  "3533": "Ġbꜣ~",
  "3534": "Ġzẖꜣ.wĠpn",
  "3535": "ĠḫprĠpꜣ",
  "3536": "-nḫṱ",
  "3537": "ĠpꜣĠḥm",
  "3538": "-ḏꜣḏꜣ",
  "3539": "Ġbn-pwĠ=yĠdy.t",
  "3540": "-rnĠ=w",
  "3541": "Ġpꜣ-dy-ꞽmn-nsw-tꜣ.wy",
  "3542": "ĠpꜣĠ1/3",
  "3543": "Ġ(sꜣ)Ġmꜣꜥ-rꜥ",
  "3544": "ĠꞽĠdyĠpꜣ-rꜥ",
  "3545": "ḏꜣḏꜣ",
  "3546": "Ġšll",
  "3547": "ĠsꜣĠḥr-sꜣ-ꜣs.t",
  "3548": "ĠnꜣyĠ=fĠhyn.w",
  "3549": "ĠḏdĠ=fĠnĠ=y",
  "3550": "Ġ=wĠtꜣ",
  "3551": "Ġꜣs.tĠnꜣ-nfr-",
  "3552": "Ġḥ.t-nṯrĠn",
  "3553": "ĠꞽrmĠ=w",
  "3554": "ĠḥnĠs",
  "3555": "Ġnꜣe",
  "3556": "ĠwḫꜣĠ=f",
  "3557": "Ġm-bꜣḥĠꜣs.t",
  "3558": "Ġpr-ꞽw",
  "3559": "Ġsḥm.t.w",
  "3560": "ĠsꜣĠḏḥwty",
  "3561": "ĠsꜣĠtwtw",
  "3562": ".ḏdy",
  "3563": "ĠpꜣĠꜥlw",
  "3564": "-(n-)pꜣ",
  "3565": ".ṱĠ=(y)",
  "3566": "Ġẖr.ꞽrĠ=w",
  "3567": "Ġrmy",
  "3568": "Ġnty-ꞽwĠ=wĠ(r)",
  "3569": "ĠpꜣyĠ(=y)ĠnbĠꜥꜣ",
  "3570": "ĠtꜣĠmd.t",
  "3571": "Ġnty-ꞽwĠ=fĠ(r)",
  "3572": "Ġꞽh̭y",
  "3573": "qll",
  "3574": "ĠpḥĠr",
  "3575": "ĠḏdĠ=wĠnĠ=f",
  "3576": "Ġẖꜥr",
  "3577": "-n-ḥp-wsꞽr",
  "3578": "ĠpꜣĠnṯr-ꜥꜣĠnb-ꞽbt",
  "3579": "Ġwꜣḥ-mw-n-tꜣ",
  "3580": "-ꞽn(.t)",
  "3581": "ĠꞽmnĠpꜣĠnṯr-ꜥꜣ",
  "3582": "sꜣn",
  "3583": "Ġh̭ꜥr",
  "3584": "ĠpꜣĠsnty",
  "3585": "Ġꞽw=f-ḫprĠr",
  "3586": ".nꜣ",
  "3587": "Ġ(w)sꞽrĠwnꞽsĠmĠnĠ=kĠꞽr.t-ḥr.w",
  "3588": "m.w-sk",
  "3589": "Ġ=fĠnw",
  "3590": "Ġnmt",
  "3591": "Ġḫnt.ꞽ-š",
  "3592": "Ġḥr.ꞽ-tp-ꜥꜣ",
  "3593": "Ġḥqꜣ-ḥw.tĠsmr-wꜥ.tꞽ",
  "3594": "Ġḥꜥ.PL",
  "3595": "ĠnĠ=kĠrḏw",
  "3596": "Ġdgꜣ",
  "3597": "Ġqꜥḥ",
  "3598": "ĠꜥĠ=f",
  "3599": "Ġꞽnt",
  "3600": "ĠḥrĠ=kĠm",
  "3601": "ḏ.t-ḥr",
  "3602": "Ġb(w)",
  "3603": "-(w)",
  "3604": "Ġḫnt(.ꞽ)-ꞽmn.tꞽw",
  "3605": "(.t).PL",
  "3606": "-n=ꞽ",
  "3607": "Ġwꞽꜣ",
  "3608": "Ġꞽn.t",
  "3609": "Ġrrk",
  "3610": "Ġꜥnḫ.w",
  "3611": "Ġkꜣp",
  "3612": "Ġwbn.wĠn(.ꞽ)Ġkf.tĠm",
  "3613": "Ġr-ḏrĠ=f",
  "3614": "Ġzꜣb-ꜥḏ",
  "3615": "Ġnb.t-ḥw.t",
  "3616": "ĠꞽnĠkꜣ",
  "3617": "Ġḥtp.w",
  "3618": "i̯ĠnĠ=kĠs(ꞽ)",
  "3619": "ĠḥrĠwꜣ.t.PLĠnfr.(w)t",
  "3620": "Ġṯb",
  "3621": "(w)d",
  "3622": "Ġḥḏ.t",
  "3623": "Ġḏr.tĠ=k",
  "3624": "ĠnĠḏ.tĠḏ.t",
  "3625": "Ġꜥ.t.PL",
  "3626": ".nĠḥr.w",
  "3627": "Ġmrḥ",
  "3628": "Ġkꜣ(=ꞽ)-n(.ꞽ)",
  "3629": "Ġkꜣ(=ꞽ)-n(.ꞽ)-nswt",
  "3630": "-ḫp",
  "3631": "ĠwꜣḥĠ=f",
  "3632": "Ġḏi̯Ġ=k",
  "3633": "zn",
  "3634": "wf",
  "3635": "Ġꜥ.t",
  "3636": "ĠtpĠ=k",
  "3637": "Ġ=ꞽĠnĠm",
  "3638": "Ġhꜣw",
  "3639": "Ġpr-ḫrwĠn",
  "3640": "-nṯr-nꞽ.t",
  "3641": "-pꜥ.t",
  "3642": "Ġnḏs",
  "3643": "Ġwpi̯-rnp.tĠḏḥw.t(y)t",
  "3644": "Ġꞽdw",
  "3645": "Ġꞽsw",
  "3646": "Ġsmꞽ",
  "3647": "dr",
  "3648": "ĠḏsĠ=f",
  "3649": "Ġks",
  "3650": "Ġꞽ:(n)ḏ",
  "3651": "ꜣ.tĠn.t",
  "3652": "Ġꞽmꜣḫ(.w)",
  "3653": ".tĠnn",
  "3654": "ĠsḏmĠn",
  "3655": "ĠꞽrĠ=kĠn",
  "3656": "ĠꞽyĠnĠ=k",
  "3657": "ĠṯꜣwĠn",
  "3658": ".ḫrĠ=kĠnĠ=f",
  "3659": "Ġḏdꞽ",
  "3660": "-ꜥḥꜥ",
  "3661": "ĠšmĠ=fĠr",
  "3662": "fꞽ",
  "3663": "Ġnfr.w",
  "3664": "Ġꜥꜣm",
  "3665": "ĠhyĠn",
  "3666": "Ġꞽḥ.t",
  "3667": "ĠꞽwĠnꜣ",
  "3668": "Ġm-ḏi̯",
  "3669": "ĠpꜣyĠ⸗st",
  "3670": "Ġ⸗wĠn",
  "3671": "Ġwrḥ.w",
  "3672": "Ġ⸗kĠḥr",
  "3673": "ĠrĠnḥḥĠḏ.t",
  "3674": "Ġẖrd.w",
  "3675": "ĠnĠtꜣy",
  "3676": "ĠḫprĠwꜥ",
  "3677": "Ġꜣty",
  "3678": "ĠpꜣĠsḥn",
  "3679": "ĠntyĠsẖĠḥry",
  "3680": "-ꞽnp",
  "3681": "-qdy",
  "3682": "Ġpꜣ-šr-ꞽmn",
  "3683": "=w-ḫ",
  "3684": "Ġ(r",
  "3685": "ĠntyĠḫpr",
  "3686": "Ġẖr-rd.wy",
  "3687": "Ġ=kĠm-sꜣ",
  "3688": "Ġmyt",
  "3689": "ĠnꜣĠhyn",
  "3690": "ĠstĠšsp-n",
  "3691": "ĠstĠšsp-n-ꞽp",
  "3692": "-rsy",
  "3693": "ĠgmĠ=k",
  "3694": "ĠmtwĠ=kĠn",
  "3695": "ĠpꜣĠh̭m",
  "3696": "Ġm-ꞽrĠḫꜣꜥ",
  "3697": "Ġpꜣ-dy-ḥr-smꜣ-tꜣ.wy",
  "3698": "ĠtꜣyĠ=fĠmw.t",
  "3699": "ĠpꜣĠšyĠꞽrmĠpꜣ",
  "3700": "Ġths",
  "3701": "ĠmyĠmw",
  "3702": "Ġꜥfꜥ",
  "3703": "-ḥr-r=w",
  "3704": "Ġq(y)",
  "3705": "Ġꜣbh̭",
  "3706": "sĠꜥnḫ-wḏꜣ-snbĠꞽrmĠnꜣĠnṯr.w",
  "3707": "Ġꜥꜣ-ꜥꜣĠnbĠḫmnw",
  "3708": "ph",
  "3709": "Ġꞽwf.w",
  "3710": "Ġꜥnḫ-ḥp",
  "3711": "Ġr-ꞽwĠ=s",
  "3712": "ĠnĠpꜣyĠ=k",
  "3713": "ĠpꜣyĠ=nĠnbĠꜥꜣ",
  "3714": "ĠnꜣĠꜣḥ.w",
  "3715": "Ġpꜣ-dy-ḥr",
  "3716": "ĠḥtrĠꞽwtyĠmn",
  "3717": "Ġr-ẖĠpꜣĠnty",
  "3718": "-wš-n",
  "3719": "ĠwꜣḥĠrĠmd.tĠnbĠnty-ꞽwĠ=yĠšn",
  "3720": "ĠꞽrĠ=n",
  "3721": "Ġꜥn-sm",
  "3722": "ĠsꜣĠḏd",
  "3723": "ĠpꜣĠntyĠn",
  "3724": "ĠpꜣĠnty-ꞽw-ꞽw",
  "3725": "(r)-sẖ",
  "3726": "Ġbꜣk-(n-)wsꞽr-ḥpĠpꜣĠnṯr-ꜥꜣ",
  "3727": "ĠpꜣĠwr-ꞽꜣbṱĠpꜣ-qll",
  "3728": "ĠwnĠpꜣĠnty",
  "3729": "-md.t",
  "3730": "Ġta-nꜣ",
  "3731": "Ġta-bw",
  "3732": "Ġta-bwbw",
  "3733": "ĠpꜣyĠ=kĠḥry",
  "3734": "Ġmꜣnw",
  "3735": "ĠntyĠsẖ",
  "3736": "me",
  "3737": "-ge",
  "3738": "ĠḏdĠnĠ=fĠpꜣ",
  "3739": "Ġmtre",
  "3740": "Ġ=fĠsẖ",
  "3741": "ĠmtwĠ=fĠḫpr",
  "3742": "Ġby.w",
  "3743": "bꜣst.t",
  "3744": "ĠpꜣyĠ=sĠbyĠrĠšms",
  "3745": "Ġtwꜣ",
  "3746": "Ġpr.t-ḫrwĠtʾĠḥnq.t",
  "3747": "Ġwꜥb(.t)",
  "3748": "ĠnĠkꜣĠn",
  "3749": "ĠpwĠm",
  "3750": "Ġ=fĠṯw",
  "3751": "Ġwrḏ",
  "3752": "Ġds",
  "3753": "-wḏ",
  "3754": ".(",
  "3755": "(.t)Ġnfr.t",
  "3756": "-mḏḥ.w",
  "3757": "-mḏḥ.w(w)",
  "3758": "Ġnn-sḏr-kꜣ",
  "3759": "mꜣm",
  "3760": "Ġwr-mḏ-šmꜥ.w",
  "3761": "b)",
  "3762": "-(n",
  "3763": "-ḥkꜣ",
  "3764": "mt.ꞽ-m-zꜣ=fĠmr.n-rꜥw",
  "3765": "Ġḥꜥꜥ",
  "3766": "Ġsꞽꜥ",
  "3767": "Ġꞽ:šm",
  "3768": "ĠzꜣĠ=fĠmr.yĠ=f",
  "3769": "Ġqꜣi̯",
  "3770": "Ġḏbꜥ.PL",
  "3771": "Ġḫnz",
  "3772": "Ġtꜣ.DU",
  "3773": "ĠḥrĠgs",
  "3774": "Ġḥw.t-kꜣĠsnḏm-ꞽb",
  "3775": "Ġ=fĠnn",
  "3776": ".PLĠn.w",
  "3777": "r-mꜣꜥ.t",
  "3778": "Ġsmḥ",
  "3779": "ĠtpĠ=f",
  "3780": "-s(ꞽ)",
  "3781": "ĠꞽrĠtꜣ",
  "3782": ".nĠṯwĠḥr.w",
  "3783": "-kꜣ.PL",
  "3784": "Ġwꜣš",
  "3785": "Ġswꜥb",
  "3786": "Ġꜥbꜣ",
  "3787": "ĠrwḏĠrnĠn(.ꞽ)",
  "3788": ".wĠnfr",
  "3789": "Ġs.tĠ=f",
  "3790": "Ġḫnt.ꞽ-ꞽmn",
  "3791": "(ꞽ)Ġ=f",
  "3792": "Ġꜣpd.PL",
  "3793": "Ġzẖꜣ.w-pr-ḥḏ",
  "3794": "Ġḥwn",
  "3795": "Ġwpi̯Ġrʾ",
  "3796": "-ḫr",
  "3797": "-nḫb",
  "3798": "ĠmĠmsꜣḏ.t",
  "3799": ".w)",
  "3800": "Ġsšn",
  "3801": "ĠrĠn",
  "3802": "Ġmḥ.t",
  "3803": "Ġ=ꞽĠnĠmĠmꞽn",
  "3804": "Ġbw-nb",
  "3805": "Ġꜣbd",
  "3806": "(ꜣ=ꞽ)",
  "3807": "Ġtḫ",
  "3808": "Ġnṯr-ꜥꜣĠnb-ꜣbḏ",
  "3809": "-mḏꜣ.t",
  "3810": "Ġbꜣ.PL",
  "3811": "Ġzḫn.w-ꜣḫ",
  "3812": "Ġsšd",
  "3813": "Ġḫnm.t",
  "3814": "-mꜣ",
  "3815": "Ġsḏm.t",
  "3816": "Ġqbḥ(.w)Ġ=kĠꞽpn",
  "3817": "Ġsšsꜣ",
  "3818": "ḫꞽ",
  "3819": "r-ḥꜣ.t",
  "3820": ".wĠnb",
  "3821": "Ġꞽni̯.tw",
  "3822": "Ġ(ꞽ)ꜥrĠnĠqs",
  "3823": "ĠḫprĠꞽw",
  "3824": "Ġpsḥ",
  "3825": "Ġḥꜣ.w",
  "3826": "Ġḥr-ꜥ",
  "3827": "ĠhrwĠn",
  "3828": "-šm",
  "3829": "ĠꞽwĠ=fĠmḥ",
  "3830": "-m-ḥꜣ.t",
  "3831": "Ġnwn",
  "3832": "-n-ḥr",
  "3833": "-r-",
  "3834": "Ġr-ꞽqr",
  "3835": "Ġpr-ꞽmn",
  "3836": "Ġyꜣ",
  "3837": "Ġꞽni̯.twĠnĠ⸗k",
  "3838": "Ġmꜥ~ꞽrʾ~",
  "3839": "ĠpꜣĠꜥnḫ",
  "3840": "ĠpꜣĠn.tꞽ",
  "3841": "ĠnꜣĠnṯr.PL",
  "3842": "Ġḥm-nṯr-tp",
  "3843": "Ġ⸗ꞽĠnĠ⸗k",
  "3844": "Ġꞽstw",
  "3845": "~dꞽ",
  "3846": "Ġšwy",
  "3847": "ĠtꜣĠs.t",
  "3848": "ĠrĠtm",
  "3849": "-wꜣḥ",
  "3850": "ĠrmṯĠn",
  "3851": "Ġnhm",
  "3852": "ĠnꜣĠsẖ",
  "3853": "ĠpꜣĠḫm",
  "3854": "Ġbrny",
  "3855": "trw",
  "3856": "Ġpa-nꜣ",
  "3857": "Ġpꜣ-bnr-n",
  "3858": "Ġḥr-ꜥnḫ",
  "3859": "ĠhbĠ=wĠnĠ=y",
  "3860": "Ġꞽ.ꞽrĠ=tn",
  "3861": "ĠꞽwṱĠ=w",
  "3862": "ĠpꜣĠnty-ꞽwĠ=fĠrĠꞽy",
  "3863": "Ġ1/1",
  "3864": ".ꞽmĠ=w",
  "3865": "Ġṯsy",
  "3866": "Ġ=tĠm",
  "3867": "ĠrĠtmĠdy.t",
  "3868": "-pꜣ-š",
  "3869": "Ġꜣs.tĠnꜣ-nfr-s.t",
  "3870": "Ġ(n-)rnĠ=w",
  "3871": "ĠpꜣyĠ=kĠšr",
  "3872": "ĠḫrwĠ=y",
  "3873": "Ġꞽ.ꞽr-ḥrĠ=f",
  "3874": "ĠsmĠr",
  "3875": "ĠsꜣĠḥr-wḏꜣ",
  "3876": "Ġwpy(.t)",
  "3877": "ĠwḫꜣĠ=s",
  "3878": "ĠrnĠ=w",
  "3879": "ꜥꜣ.t",
  "3880": "Ġ=fĠṱ",
  "3881": "ĠpaĠḥ.t-nn-nsw",
  "3882": "ĠẖnĠnꜣyĠ=f",
  "3883": "Ġ=kĠm-ꞽr",
  "3884": "Ġwꜥb-n-ꜣ",
  "3885": "ĠnĠnꜣyĠ=f",
  "3886": "ĠmyĠꞽr",
  "3887": "Ġwyṱ",
  "3888": "-b(y)n.t",
  "3889": "ĠpꜣyĠ=(y)Ġšr",
  "3890": "Ġmd(.t)ĠnbĠnty",
  "3891": "-ḥryĠn",
  "3892": "-ꞽr.t-bn",
  "3893": "-(n-)nꜣ",
  "3894": ".ḏdyĠs",
  "3895": "Ġpr-mn",
  "3896": "ĠnĠkmy",
  "3897": "Ġꞽrpy.w",
  "3898": "ĠsĠnĠ=t",
  "3899": "Ġḏlḥ",
  "3900": "Ġꞽ.ꞽr-ḥrĠ=w",
  "3901": "Ġꞽwꞽw",
  "3902": "Ġẖr.ꞽrĠ=wĠdyĠnĠpꜣ-hrw",
  "3903": "ĠpꜣyĠꜥ.wy",
  "3904": "Ġꞽ.ꞽrĠ=kĠwḫꜣ",
  "3905": "Ġbn-ꞽwĠ=n",
  "3906": "Ġr-ḥryĠrĠkmy",
  "3907": "np.t",
  "3908": "Ġh̭y",
  "3909": "(r)-sẖĠꞽt-nṯr",
  "3910": "ĠnĠpꜣĠꞽ.ꞽr",
  "3911": "Ġh̭r",
  "3912": "ĠrĠḥtp",
  "3913": "=y",
  "3914": "Ġta-tw",
  "3915": "Ġta-bwbwe",
  "3916": "-wꜥ-sp",
  "3917": "ĠntyĠẖrĠnꜣyĠ=fĠẖrd.ṱ.w",
  "3918": "Ġpꜣ-dy-ꞽtm",
  "3919": "ĠpꜣyĠ=(y)Ġꞽt.ṱ",
  "3920": "ĠnꜣĠꜣḥ",
  "3921": "Ġꜥy.w",
  "3922": "ĠnĠtꜣĠdwꜣ.t",
  "3923": "ĠꞽwĠ=fĠsẖ",
  "3924": "ĠꞽrmĠnꜣĠwꜥb.w",
  "3925": "ĠtꜣyĠ=kĠm",
  "3926": "Ġḥp-ꜥnḫ",
  "3927": "Ġšm-ꞽy",
  "3928": "lꜥl",
  "3929": "Ġꞽgš",
  "3930": "-ꜥꜣ-",
  "3931": "Ġpꜣy=f-ṯꜣw-ꜥ.wy-bꜣst.t",
  "3932": "pt",
  "3933": "Ġmw.tĠ=fĠtꜣ",
  "3934": "Ġskr-wsꞽr",
  "3935": "Ġrmṯ-ḫm",
  "3936": "ĠꞽwĠ=fĠdy.t",
  "3937": "Ġwnḥ",
  "3938": "Ġmd(w)",
  "3939": "Ġ(w)sꞽrĠwnꞽs",
  "3940": "ĠnbĠ=f",
  "3941": "Ġꞽri̯.tĠn",
  "3942": "Ġpr-nzw",
  "3943": "Ġwr.PL",
  "3944": "Ġ=fĠẖr",
  "3945": "ĠnĠ=kĠrḏwĠpri̯",
  "3946": "Ġsꜣḫ",
  "3947": "Ġmꜣ.n",
  "3948": "Ġḥri̯",
  "3949": "Ġb(w)-nfr",
  "3950": "Ġpr-ḫrwĠnĠ=f",
  "3951": "Ġ=fĠꜥnḫĠ=f",
  "3952": "Ġ(ꞽ)m(.ꞽ)-rʾ-s.t",
  "3953": "Ġḫrp-ꜥḥ",
  "3954": "ḏd",
  "3955": "Ġꞽ:ḫr",
  "3956": "Ġ=kĠꜣ",
  "3957": "ĠꜥḥꜥĠr",
  "3958": "Ġḫrp-nb",
  "3959": "Ġḫrp-nb.y",
  "3960": "(ꜣ.w",
  "3961": "(ꜣ.w)",
  "3962": "ḏw",
  "3963": "Ġḏd.ꞽnĠḥm",
  "3964": "Ġḥtp-ḏi̯ĠnswtĠḥtp-ḏi̯Ġꞽnp.wĠtp.ꞽ-ḏw=f",
  "3965": "Ġꜥq.w",
  "3966": "ĠꜥꜣĠm",
  "3967": "ĠḥnꜥĠnb.t-ḥw(.t)",
  "3968": "Ġswrꞽ",
  "3969": "p(ꞽ)",
  "3970": "Ġwꜣḏ-wr",
  "3971": "ĠzꜣĠ=s",
  "3972": "ĠḥrĠḫn",
  "3973": "i̯.nĠ=k",
  "3974": "-hrw",
  "3975": "Ġsfṯ",
  "3976": "Ġsn.tĠ=f",
  "3977": "sw.t",
  "3978": "ꜣ.t(ꞽ)",
  "3979": "ĠwnꞽsĠn",
  "3980": "ĠꞽbĠn(.ꞽ)",
  "3981": "-ḏ.t",
  "3982": "Ġkꜣ(=ꞽ)-m",
  "3983": "Ġ(ꞽ)m(.ꞽ)-rʾ-pr-ḥw.t-ꜥꜣ(.t)",
  "3984": "pl",
  "3985": "Ġfd",
  "3986": "Ġdbḥ.t",
  "3987": "-rp",
  "3988": "ĠnfrĠn",
  "3989": "mt",
  "3990": "Ġmʾw.tĠ=kĠnw.t",
  "3991": "Ġpr-wr",
  "3992": "d.tĠn",
  "3993": "Ġšn.w",
  "3994": "Ġḥmsi̯Ġ=k",
  "3995": "Ġnṯr-",
  "3996": "Ġ=kĠnĠ=k",
  "3997": "Ġkt",
  "3998": "Ġḥm-nṯr-s",
  "3999": "Ġsḫp",
  "4000": "Ġs(t)",
  "4001": "ĠsmꜣĠꞽyi̯-n(=ꞽ)-ẖnm.w",
  "4002": "Ġzš",
  "4003": "Ġsšm.w-tꜣ",
  "4004": "Ġḥm(.t)-nṯr-nꞽ.t",
  "4005": "Ġsgnn",
  "4006": "-ḫft",
  "4007": "-wꜥb(.w)",
  "4008": "Ġrkḥ",
  "4009": "i̯Ġtw",
  "4010": "Ġḫsb",
  "4011": "Ġmꜣꜥ.tĠn",
  "4012": "Ġḏi̯Ġ=fĠsnf",
  "4013": "Ġ=kĠꞽw",
  "4014": "ĠꜣpdĠḫꜣĠꜣpdĠḫꜣ",
  "4015": "Ġšꜣs",
  "4016": "ĠmĠꞽwn.w",
  "4017": "-ꞽwn.w",
  "4018": "Ġ(ꞽ)r(.ꞽ-ꞽ)ḫ.t-nswt",
  "4019": "ĠtpĠtꜣ",
  "4020": "n.wt",
  "4021": "Ġḫrp-zḥ",
  "4022": "ĠwnĠnĠ=k",
  "4023": "Ġsdꜣ",
  "4024": "r-kꜣ-rꜥw",
  "4025": "r-m-ḫt",
  "4026": "ĠmnĠ=f",
  "4027": "n.tĠn",
  "4028": "i̯Ġm",
  "4029": "Ġꜥp",
  "4030": "Ġḏd.ꞽnĠḥmĠ=f",
  "4031": "Ġnf",
  "4032": "-n-)",
  "4033": "ĠmrĠn",
  "4034": "Ġšpss",
  "4035": "Ġwpw.t",
  "4036": "Ġhꜣi̯.y",
  "4037": "Ġ=fĠnb",
  "4038": "Ġꞽmy",
  "4039": "ĠꜥḥꜥĠ=f",
  "4040": "Ġsḫr.wĠn",
  "4041": "Ġgꜣb",
  "4042": "ĠḫꜣꜥĠpꜣ",
  "4043": "ĠꞽwĠbw",
  "4044": "Ġḏi̯Ġ⸗f",
  "4045": "šꜣ~",
  "4046": "ĠꞽbĠ⸗k",
  "4047": "Ġꜥꜣ.tĠn",
  "4048": "Ġꞽ~",
  "4049": "Ġsty.t",
  "4050": "Ġšmw",
  "4051": "Ġḥwrꜥ",
  "4052": "ĠsmyĠn",
  "4053": "ĠꞽmĠ⸗sn",
  "4054": "Ġꜥt",
  "4055": "Ġḫy",
  "4056": "wĠpꜣ",
  "4057": "ĠpꜣĠnkt",
  "4058": "Ġsḥm.tĠn",
  "4059": "Ġḫnsw-ḏḥwty",
  "4060": "ĠtꜣĠḥ.tĠn",
  "4061": "ĠtꜣĠḥry.t",
  "4062": "Ġs.t.w",
  "4063": "Ġḏd-ḥrĠsꜣ",
  "4064": "Ġbn-pwĠ=k",
  "4065": "Ġ=kĠmy",
  "4066": "Ġmw.tĠ=fĠtꜣ-dy",
  "4067": "ĠpꜣĠrꜣ",
  "4068": "Ġbn-ꞽwĠrḫĠrmṯĠnbĠnĠpꜣĠtꜣ",
  "4069": "-bnrĠn",
  "4070": "ĠmtwĠ=yĠdy.tĠwꜥb",
  "4071": "ĠmtwĠ=kĠst",
  "4072": "-ḥḥ",
  "4073": "ĠrĠpꜣĠꜥ.wy",
  "4074": "Ġmy-ꞽr",
  "4075": "-n-ꜥnḫ",
  "4076": "ĠꞽrĠ=wĠnĠ=k",
  "4077": "Ġtw=f",
  "4078": "Ġtw=f-ḥꜥpy",
  "4079": "ĠtwtwĠsꜣĠpꜣ-dy-ꞽtm",
  "4080": "Ġꞽ.ꞽrĠ=kĠn",
  "4081": "ĠnĠpꜣĠnty",
  "4082": "ĠwnĠwꜥ",
  "4083": "Ġpꜣ-šr-n",
  "4084": "ĠnĠnꜣĠnṯr.w",
  "4085": "ĠnꜣĠnṯr.w-mr-ꞽt.ṱ",
  "4086": "ĠrĠpꜣyĠ=f",
  "4087": "-bw-nꜣy",
  "4088": "ĠmtwĠ=(y)",
  "4089": "Ġrmṯ-swg",
  "4090": "ĠpꜣĠhp",
  "4091": "Ġ(n)ĠnꜣyĠ=f",
  "4092": "ĠprĠm",
  "4093": "-ꞽmn-nw.t",
  "4094": "nys",
  "4095": "Ġn.ꞽmĠ=k",
  "4096": "Ġsbk-nb-payĠpꜣĠnṯr-ꜥꜣ",
  "4097": "yb",
  "4098": "Ġ(n-)ḏr.ṱ",
  "4099": "Ġḥ.t-nsw",
  "4100": "ls",
  "4101": "ĠꞽwĠ=wĠr",
  "4102": "Ġyꜥb",
  "4103": "ĠꞽwĠ=kĠḥsĠm-bꜣḥĠwsꞽr-ḥpĠpꜣĠnṯr-ꜥꜣ",
  "4104": "ĠmĠẖrbĠn",
  "4105": "ĠmyĠdyĠ=w",
  "4106": "Ġꜣs.tĠtꜣĠnṯr.t-ꜥꜣ.t",
  "4107": "ĠꞽrmĠ=n",
  "4108": "Ġḥm-nṯr-(n-)ꞽmn",
  "4109": "Ġsby",
  "4110": "Ġšs-(n-)",
  "4111": "Ġšs-(n-)nsw",
  "4112": "Ġḥr-tꜣy",
  "4113": "Ġḥr-tꜣy=f",
  "4114": "ĠsꜣĠpa-nꜣ",
  "4115": "ĠꞽwĠmn-mtw",
  "4116": "Ġm-bꜣḥĠwsꞽr-skrĠnṯr-ꜥꜣĠnb-ꞽbt",
  "4117": "ĠsmtĠn",
  "4118": "Ġwꜣḥ-mw-n-tꜣ-ꞽn(.t)",
  "4119": "ĠtꜣyĠnty",
  "4120": "Ġmw.t.ṱĠ=f",
  "4121": "Ġsšṱ",
  "4122": "Ġꜥq-ḥbs",
  "4123": "-5",
  "4124": ".bn",
  "4125": "Ġḥp-mn",
  "4126": "Ġ=fĠsṯꜣ",
  "4127": "ĠrnĠ=y.ṱ",
  "4128": "Ġbn-pwĠ=n",
  "4129": "Ġkꜣ-nfr",
  "4130": "Ġ=wĠst",
  "4131": "-n-sꜥnḫ",
  "4132": "Ġpr-pr-ꜥꜣ",
  "4133": "Ġẖrd.ṱ",
  "4134": "Ġꞽy-m-ḥtpĠsꜣ",
  "4135": "Ġꞽ.ꞽrĠ=kĠr",
  "4136": "Ġgby",
  "4137": "re",
  "4138": "ĠmtwĠ=fĠꞽr",
  "4139": "Ġpꜣ-dy-sbk",
  "4140": "ĠḏdĠstne",
  "4141": "ĠꞽĠꞽrĠ=f",
  "4142": "-ꜥq",
  "4143": "ĠnĠpꜣĠsẖ",
  "4144": "Ġ(n-)wꜥ",
  "4145": "Ġ(n-)wꜥ-sp",
  "4146": "ĠmnĠsꜣĠpꜣ",
  "4147": "ĠmnĠsꜣĠpꜣĠmn",
  "4148": "Ġpꜣ-dy-ꜣs.tĠsꜣ",
  "4149": ".yĠ=fĠr",
  "4150": "Ġ(ꞽ)m(.ꞽ)-rʾ-zẖꜣ.w(w)-ꜥ-(n-)nswt",
  "4151": "tꞽw",
  "4152": "Ġsḥḏ-zẖꜣ.ww",
  "4153": "Ġrnsꞽ",
  "4154": "Ġnswt-bꞽ.tꞽ",
  "4155": "Ġꜥwꜣ",
  "4156": "-nṯr-",
  "4157": "Ġ(ꞽ)m(.ꞽ)-ḫt",
  "4158": "-wḏꜣ",
  "4159": ".tĠmꜣꜥ",
  "4160": "Ġ(w)sr(.w)Ġppy",
  "4161": "Ġꜥqꜣ",
  "4162": "Ġdꜣb",
  "4163": "-dwꜣ",
  "4164": "Ġmḏḥ.w-mḏḥ.w(w)",
  "4165": "ĠꞽnkĠḥr.w",
  "4166": "Ġmꞽtr.t",
  "4167": "Ġnn-sḏr-kꜣ(=ꞽ)",
  "4168": "Ġꞽ(w)f",
  "4169": "-sšm",
  "4170": "Ġ=ṯnĠn",
  "4171": "Ġmnw-ḥr",
  "4172": "Ġmꜣꜥ-ḫrwĠmsi̯.n",
  "4173": "-snb",
  "4174": "Ġwsḫ",
  "4175": "Ġz(my.)t",
  "4176": "-ꜥb",
  "4177": "ĠrĠ=s",
  "4178": "ĠꞽwĠn",
  "4179": "Ġsmnḫ",
  "4180": "Ġnʾ",
  "4181": "ĠḫsfĠrrk",
  "4182": "Ġzẖꜣ.w-ꜥ-n-nswt",
  "4183": ".yĠnĠ=f",
  "4184": "Ġbbꞽ",
  "4185": ".t.PLĠm",
  "4186": "Ġn(.ꞽ).w",
  "4187": "Ġz(my).tĠꞽmn.t(ꞽ).t",
  "4188": "Ġḫft-ḥr",
  "4189": "Ġꞽbḥ",
  "4190": "ĠswĠn",
  "4191": ".kw",
  "4192": "-nʾ.t",
  "4193": "Ġꜥ.w",
  "4194": "Ġdi̯Ġ=f",
  "4195": "ĠrḫĠ=k",
  "4196": "Ġ=snĠḥr",
  "4197": "ĠḥrĠ=kĠr",
  "4198": "Ġḫpp!",
  "4199": "Ġhtꞽ",
  "4200": ".tꞽ-nḫt",
  "4201": "Ġꜣbḏ.w",
  "4202": "Ġqrs.tĠ=fĠmĠẖr-nṯr",
  "4203": "Ġ=fĠmrĠꞽri̯.yĠ=ꞽ",
  "4204": "-nḥs",
  "4205": "Ġmk.t",
  "4206": "-nb(.t)",
  "4207": "Ġn(ꞽ).tĠpw",
  "4208": "i̯.tĠ=f",
  "4209": "Ġtp.t",
  "4210": "-ḫꜥ",
  "4211": "Ġrḏi̯.nĠ=f",
  "4212": "Ġ(ꞽ)m(.ꞽ)-r(ʾ)-(ꞽ)",
  "4213": "Ġḏm",
  "4214": "Ġšdi̯.tĠtʾĠḥnq.t",
  "4215": "Ġšdi̯.tĠtʾĠḥnq.tĠḥw.t-kꜣ-ḥr.w",
  "4216": "Ġšdi̯.tĠtʾĠḥnq.tĠḥw.t-kꜣ-ḥr.w-zꜣ",
  "4217": "Ġbw-nfr",
  "4218": "Ġꞽṯi̯.n",
  "4219": "Ġ(ꞽ)m(.ꞽ)-rʾ-wpw",
  "4220": "ĠmĠz(my.)t",
  "4221": "Ġzẖꜣ.PL",
  "4222": "Ġhnw",
  "4223": "Ġsrw",
  "4224": "wḏ",
  "4225": "Ġgḥs",
  "4226": "Ġtp.ꞽ-ḥꜣ.t",
  "4227": "-kꜣ.t-nb.t-n.t-nswt",
  "4228": "Ġ=kĠm-ḫt",
  "4229": "Ġkn",
  "4230": "-ꞽzzꞽ",
  "4231": "-pꜥ.tĠḥꜣ.tꞽ-ꜥ",
  "4232": "Ġpzḥ",
  "4233": "Ġdbḥ.t-ḥtp",
  "4234": "-ḏd.t",
  "4235": "tꞽ.t",
  "4236": "Ġḫrp-n",
  "4237": "Ġẖni̯",
  "4238": "ꞽĠḥr",
  "4239": "Ġḏi̯Ġ=fĠsnfĠmĠmsꜣḏ.t",
  "4240": "ĠtʾĠḥ(n)q.t",
  "4241": "Ġṯntꞽ",
  "4242": "ĠsḫmĠ=k",
  "4243": "ꜣm",
  "4244": "-nꞽ",
  "4245": "qs",
  "4246": "Ġzꜣ-nswt-n",
  "4247": "Ġm-ḫt",
  "4248": "ẖnm",
  "4249": "Ġsḏd",
  "4250": "Ġnsw.t",
  "4251": "(w)ĠnĠ=f",
  "4252": "fd",
  "4253": "-nfr-ꞽr-kꜣ-rꜥw",
  "4254": "Ġḏꜣḏ",
  "4255": "Ġḏd.ḫrĠ=kĠrĠ=s",
  "4256": "Ġḥr.wĠzꜣ",
  "4257": "Ġpri̯.wĠḫr",
  "4258": "-mꜣꜥ.tĠn",
  "4259": "Ġbꜣst.t",
  "4260": "Ġẖs",
  "4261": "Ġbꜣ.w",
  "4262": "Ġtwr",
  "4263": "Ġwḏ.t",
  "4264": "Ġnmt.ꞽ-m-zꜣ=fĠmr.n-rꜥwĠḥnꜥ",
  "4265": "šd",
  "4266": "Ġḏfꜣ",
  "4267": "šꜣ",
  "4268": "Ġꞽri̯.w",
  "4269": "ĠsḏmĠ=k",
  "4270": ".tĠms",
  "4271": "Ġdḥr",
  "4272": "Ġḫnt.ꞽ-š-pr-ꜥꜣ",
  "4273": "ĠnbĠꞽw",
  "4274": "Ġwn(m)",
  "4275": "Ġ(t",
  "4276": "ḥw",
  "4277": "Ġꞽpw",
  "4278": "-skr",
  "4279": "(!",
  "4280": ".ṱĠ=fĠm",
  "4281": "Ġhrw-nfr",
  "4282": "Ġtꜣꞽ",
  "4283": "ĠḥrĠšmi̯.t",
  "4284": "ĠꞽryĠ⸗ꞽ",
  "4285": "Ġpri̯.y",
  "4286": "ĠmĠꜥnḫ-wḏꜣ-snb",
  "4287": "Ġbꜣk.w",
  "4288": "ĠḏdĠḫns.w",
  "4289": "ĠꞽwĠ⸗fĠḥrĠḏdĠn",
  "4290": "Ġꜥꜣy",
  "4291": "ĠmꞽĠꞽḫ",
  "4292": "ĠtꜣyĠ⸗ꞽ",
  "4293": "ĠrnĠ⸗f",
  "4294": "Ġ⸗fĠꞽwĠ⸗f",
  "4295": "~sꜣ",
  "4296": "Ġꜣs.tĠtꜣ",
  "4297": "ĠtꜣĠmn",
  "4298": "Ġmw.t-nṯr",
  "4299": "ĠpꜣĠnty-ꞽwĠ=fĠ(r)Ġꞽy",
  "4300": "Ġḏḥwty-ꞽ.ꞽr-dy-s",
  "4301": "ĠꞽrĠ=fĠr",
  "4302": "-(n-)sbk-nb",
  "4303": "ĠꞽrmĠnꜣyĠ=w",
  "4304": "Ġmn-mtwĠ=yĠmd(.t)ĠnbĠnĠpꜣĠtꜣĠꞽ.ꞽr-n",
  "4305": "-nꜣy=w-ḫ",
  "4306": "ĠmtwĠ=tĠst",
  "4307": "ĠpꜣĠmꜣy",
  "4308": "ĠꞽĠdyĠpꜣ-rꜥĠqyĠpꜣyĠ=fĠꜥḥꜥ",
  "4309": "ĠrĠwsꞽr",
  "4310": "Ġpꜣ-hb",
  "4311": "Ġwꜣḥ-ꞽb-rꜥ",
  "4312": "ĠwyĠ=fĠr.rĠ=k",
  "4313": "-ḥry.t",
  "4314": "Ġṱp",
  "4315": "ĠnbĠmd(.t)ĠnbĠnĠpꜣĠtꜣ",
  "4316": "Ġꞽr-sh̭",
  "4317": "ĠḥꜣtyĠ=y",
  "4318": "ĠpꜣĠꜥ.wy",
  "4319": "Ġpr-ꜥ",
  "4320": "ĠꞽrmĠwꜥ",
  "4321": "Ġ=wĠnꜣ",
  "4322": "Ġtkr",
  "4323": "ĠꞽwĠwn-mtw",
  "4324": "ꜥl",
  "4325": "r-mw.t",
  "4326": "ĠꞽnĠ=f",
  "4327": "ĠmtwĠ=kĠsḏr",
  "4328": "-lq",
  "4329": "-pꜣ-s-2",
  "4330": "ĠpꜣyĠ(=y)Ġšr",
  "4331": "Ġnty-ꞽwĠnꜣ",
  "4332": "Ġmr-šn",
  "4333": "Ġr.w",
  "4334": "ĠntyĠꞽy",
  "4335": "r-tw",
  "4336": "ṱe",
  "4337": "ĠḏḥwtyĠꜥꜣ-ꜥꜣĠnbĠḫmnw",
  "4338": "Ġe",
  "4339": "ĠtwĠ=s",
  "4340": "Ġ=wĠṱĠ=t",
  "4341": "Ġsbꜥ",
  "4342": "Ġḥyq",
  "4343": "Ġtš-nfr",
  "4344": "Ġbw-ꞽrĠ=wĠgm",
  "4345": "Ġnꜣ-ꜥšꜣ",
  "4346": "Ġṯꜣy-nfr",
  "4347": "Ġsw-10",
  "4348": "-nfr-tm",
  "4349": "Ġwšde",
  "4350": "ĠmyĠḫpr",
  "4351": "Ġꞽyẖ",
  "4352": "Ġꞽhwr",
  "4353": "Ġꞽhwre.t",
  "4354": "Ġym",
  "4355": "Ġꞽ.ꞽrĠ=fĠḏd",
  "4356": "ĠwꜣḥĠrĠmd.tĠnbĠnty-ꞽwĠ=yĠšnĠẖr.ꞽrĠ=wĠdyĠnĠpꜣ-hrw",
  "4357": "ĠpꜣĠmr-rw.t",
  "4358": "ĠsḏmĠpꜣĠnty",
  "4359": "Ġr.ḥrĠ=n",
  "4360": "-ꞽry",
  "4361": "-ḏmꜣꜥ",
  "4362": "ĠpꜣĠẖyr",
  "4363": "Ġꞽ.ꞽr-ḥrĠ=tn",
  "4364": "Ġbn-ꞽwĠ=f",
  "4365": "ĠbyĠmĠẖrbĠn",
  "4366": "ĠhyĠrꜥ",
  "4367": "Ġhbr",
  "4368": "ĠpꜣĠtš",
  "4369": "ĠrnĠ=fĠmn",
  "4370": "ĠḥryĠn",
  "4371": "Ġtwy-s",
  "4372": "ĠpꜣyĠ=kĠbꜣk",
  "4373": "ĠmyĠꞽnĠ=w",
  "4374": "Ġrd.wy.ṱ",
  "4375": "Ġta-nꜣ-wr.w",
  "4376": "Ġta-nꜣ-wr.w-ꜥw",
  "4377": "Ġꞽ.ꞽrĠ=kĠwꜣḥ",
  "4378": "ĠntyĠdy",
  "4379": "ĠṱĠ=y",
  "4380": "Ġḥs.wĠn",
  "4381": "Ġwpy.t",
  "4382": "ĠsyĠn",
  "4383": "syn",
  "4384": "Ġẖꜥrꜣ.t",
  "4385": "Ġwsꞽr-skrĠpꜣĠnṯr-ꜥꜣĠnb-ꞽbt",
  "4386": "Ġdy.tĠꞽr",
  "4387": "ĠwꜥbĠsp-2",
  "4388": "ĠwꜥbĠsp-2ĠwsꞽrĠnĠḥrĠsꜣĠpꜣ-dy-mn",
  "4389": "Ġmd.t-n-ꜥḏe",
  "4390": "-bꜣst",
  "4391": "p(y)",
  "4392": "ĠwyĠ=fĠr.ḥrĠ=t",
  "4393": "ĠpꜣyĠ=sĠhy",
  "4394": "ĠsꜣĠꜥnḫ-ḥp",
  "4395": "-ꜥlꜥl",
  "4396": "ĠꞽrĠ=wĠs",
  "4397": "Ġẖr-ḫnsw",
  "4398": "Ġn.ꞽmĠ=wĠn",
  "4399": "Ġẖr.r.r",
  "4400": "Ġ=tĠnĠ=y",
  "4401": "Ġdy.tĠꜥnḫ",
  "4402": "Ġky.w",
  "4403": "Ġ(nꜣ)",
  "4404": "bnr",
  "4405": "Ġm-sꜣ-ḫpr",
  "4406": "Ġnꜣ.w-nfr",
  "4407": ".DUĠ=f(ꞽ)",
  "4408": "Ġꞽr.tĠ=k",
  "4409": "Ġ=fĠnĠ=ꞽ",
  "4410": "Ġꞽm.ꞽ-ꞽb",
  "4411": "Ġꞽst",
  "4412": "Ġ(ꞽm",
  "4413": "Ġg(ꜣ)b",
  "4414": "-ḥm.w",
  "4415": "Ġḥfꜣ.w",
  "4416": "ĠwꞽĠm",
  "4417": "Ġ=kĠmꜣ",
  "4418": "ĠḏdĠ=ꞽ",
  "4419": "rĠm",
  "4420": "Ġḏsr.t",
  "4421": "ĠnĠski̯Ġ=fĠnĠski̯ĠwnꞽsĠpn",
  "4422": "Ġḥkn",
  "4423": "Ġẖkr.t-nswt-wꜥ",
  "4424": "-ꞽr.ꞽ",
  "4425": "Ġꞽ:ḫm-sk",
  "4426": "Ġḫtm.w-nṯr-wꞽꜣ-bꜣ",
  "4427": "Ġnzw",
  "4428": "ĠꞽsĠpw",
  "4429": "Ġprr",
  "4430": ".tĠn(.ꞽ)",
  "4431": "ĠmĠẖ.t",
  "4432": "Ġp(w)-nn",
  "4433": "Ġꞽmn.tꞽ.t",
  "4434": "Ġnb-ꞽmꜣḫ-ḫr-nṯr-ꜥꜣ",
  "4435": "Ġẖnm.t",
  "4436": "ĠwrĠpn",
  "4437": "Ġsmr-wꜥ.t(ꞽ)",
  "4438": "ĠhrwĠpn",
  "4439": ".ḫrĠ=tw",
  "4440": "(.t)-ḥr.w",
  "4441": "Ġgmi̯Ġ=k",
  "4442": "Ġꞽtr.t",
  "4443": "ĠnwĠn",
  "4444": "Ġmꞽ.tt",
  "4445": "Ġḥr-wr",
  "4446": "Ġsnn",
  "4447": "Ġmꜣꞽr",
  "4448": "Ġwr-mḏ.PL",
  "4449": "Ġwr-mḏ.PL-šmꜥ.w",
  "4450": "Ġ(ꞽ)ḫ",
  "4451": "ĠkꜣĠrḫ.yt",
  "4452": "Ġzꜣb-ꜥḏ-mr",
  "4453": "i̯.tĠm",
  "4454": "Ġ(ꜣ)s.tĠḥnꜥĠnb.t-ḥw(.t)",
  "4455": "Ġ=fĠmr.t",
  "4456": "Ġṯtw",
  "4457": "-s.wt",
  "4458": "Ġšwi̯Ġm",
  "4459": "Ġꞽnb",
  "4460": ".tꞽ-nḫtĠpn",
  "4461": "zꜣ",
  "4462": "Ġnhs",
  "4463": "Ġ=ṯnĠnṯr.PL",
  "4464": "Ġḫnti̯",
  "4465": "Ġwḏb",
  "4466": "ĠꜥnḫĠ=k",
  "4467": "Ġgꜣu̯.wĠ=k",
  "4468": "Ġḏf(ꜣ)",
  "4469": "Ġḥr.wĠsmr-ẖ.t",
  "4470": "ĠnĠm",
  "4471": "=sn",
  "4472": "Ġꞽp(.t)",
  "4473": "ĠpnĠn(.ꞽ)",
  "4474": "ĠmĠḥr",
  "4475": "-kꜣ=f",
  "4476": "Ġsmr-wꜥ.tꞽĠẖr(.ꞽ)-ḥ(ꜣ)b(.t)Ġ(ꞽ)m(.ꞽ)-r(ʾ)-(ꞽ)",
  "4477": "ĠgmꜣĠ=f",
  "4478": "Ġwg",
  "4479": "(-n)-nswt",
  "4480": "Ġꜥb.w",
  "4481": "ĠꜥnḫĠ=f",
  "4482": "ĠmĠrnĠ=k",
  "4483": "Ġwr.t-ḥkꜣ",
  "4484": "Ġ(ꞽ)r(.ꞽ-ꞽ)ḫ(.t)-nswtĠnfr-nswt",
  "4485": "Ġr(w)d",
  "4486": "(.w)Ġm",
  "4487": "-mwt",
  "4488": "Ġ=kĠhꜣ",
  "4489": "Ġḥsꞽ",
  "4490": "Ġsḏ.t",
  "4491": "Ġrḫ.t",
  "4492": "ĠḥwĠn",
  "4493": "ꜣḥ.w-rꜥw",
  "4494": "Ġzḥ",
  "4495": "Ġꞽm.ꞽ-rʾ-pr",
  "4496": "Ġsḫpi̯.t",
  "4497": "Ġsḥḏ-ḥm(.w)",
  "4498": "Ġsḫ.t.PL",
  "4499": "ĠzꜣĠwr",
  "4500": "Ġḥn.w",
  "4501": "ĠnĠ=kĠsn",
  "4502": "Ġḏd.ꞽnĠsḫ.tꞽĠpn",
  "4503": "Ġꞽri̯ĠnĠ=f",
  "4504": "Ġsḥḏ-wꜥb(.w)",
  "4505": "Ġ(ꞽ)m.(ꞽ)-rʾ-pr-wrĠmr.w",
  "4506": "Ġ(ꞽ)m.(ꞽ)-rʾ-pr-wrĠmr.wĠzꜣ",
  "4507": "Ġ(ꞽ)m.(ꞽ)-rʾ-pr-wrĠmr.wĠzꜣĠrnsꞽ",
  "4508": ".ytĠn",
  "4509": "Ġꞽ:wn",
  "4510": "ĠmĠḥtp(.w)",
  "4511": "Ġḥr-tp",
  "4512": "Ġ=kĠm-bꜣḥ",
  "4513": "Ġhru̯",
  "4514": "Ġzwr",
  "4515": "-mꞽ.tt",
  "4516": "Ġ=sn(ꞽ)Ġṯw",
  "4517": "ĠḥtpĠḏi̯",
  "4518": "Ġzꜣ-nswt-n-ẖ.t=f",
  "4519": "ĠꜥḥꜥĠḥr",
  "4520": "-ḥr-ꜣḫ",
  "4521": "Ġs(w)",
  "4522": "Ġn(.ꞽ)Ġḥbs",
  "4523": "-ḫft-ḥr",
  "4524": ".tꞽĠn",
  "4525": "Ġꞽyi̯ĠrĠ=f",
  "4526": "Ġꞽyi̯ĠrĠ=fĠwnꞽsĠpn",
  "4527": "Ġꜣḫ(.ꞽ)",
  "4528": "Ġꜣḫ(.ꞽ)Ġꞽ:ḫm",
  "4529": "Ġpḏ.t",
  "4530": "Ġsqd",
  "4531": "Ġqbḥ.w",
  "4532": "-rꜥw-nb",
  "4533": "-n(ꞽ)",
  "4534": "Ġhh",
  "4535": "Ġtꜣ-t",
  "4536": "Ġtp-ḥs",
  "4537": "ĠḏdĠ=ꞽĠnĠmĠmꞽn",
  "4538": "ĠꞽwfĠwꜣḏ",
  "4539": "ĠhrwĠtp.ꞽ",
  "4540": "bꜣ.t",
  "4541": "(.ꞽt)",
  "4542": "Ġqꜣs",
  "4543": "Ġšw.t",
  "4544": "ĠwtĠḥrĠ=s",
  "4545": "Ġmnd.t",
  "4546": "pd",
  "4547": "-ḥw.t-nṯr",
  "4548": "-sḥḏ",
  "4549": "Ġḥḏi̯",
  "4550": "Ġwꜥr",
  "4551": "Ġsbt",
  "4552": ".PLĠr",
  "4553": "Ġḫpr.w",
  "4554": "s(.t)",
  "4555": "yĠnfr",
  "4556": "Ġbs",
  "4557": "Ġ=kĠrd",
  "4558": "Ġwn.ꞽnĠpꜣ",
  "4559": "Ġsgr",
  "4560": "Ġḥꜥpꞽ",
  "4561": "šp",
  "4562": "ĠꜥqĠr",
  "4563": "Ġgnn",
  "4564": "ĠwbꜣĠ=f",
  "4565": "Ġsḫr.w.PL",
  "4566": "Ġwꜣs.t",
  "4567": "Ġst.t",
  "4568": "Ġḏi̯.tĠn",
  "4569": "Ġm-mꞽ.tt",
  "4570": "Ġswnw",
  "4571": "Ġꜥmꜣm",
  "4572": "ĠtꜣĠpsd.t",
  "4573": "Ġḏi̯Ġ⸗ꞽ",
  "4574": "Ġḥnꜥ-ḏdĠr-n.tꞽ",
  "4575": "Ġꞽ~ꞽrʾ~",
  "4576": "Ġ⸗fĠpꜣ",
  "4577": "ĠꞽḫĠrḫĠ⸗kĠswsn",
  "4578": "Ġmy.t",
  "4579": "~ꞽ",
  "4580": "hꜣ~ꞽrʾ",
  "4581": "ĠnꜣyĠ⸗ꞽ",
  "4582": "ĠḏdĠmn",
  "4583": "Ġꞽri̯ĠnĠ⸗k",
  "4584": "ĠkyĠḥrĠswḏꜣĠꞽbĠn",
  "4585": "ĠkyĠḥrĠswḏꜣĠꞽbĠnĠpꜣyĠ⸗ꞽĠnb",
  "4586": "ĠꞽwĠbn",
  "4587": "~n.PL",
  "4588": "Ġmntf",
  "4589": "Ġḥꜣ.tꞽĠ⸗k",
  "4590": "Ġḏr.tĠ⸗k",
  "4591": "Ġ⸗ṯ",
  "4592": "Ġ⸗stĠn",
  "4593": "ĠꞽbĠ⸗ꞽ",
  "4594": "Ġḏꜣy",
  "4595": "yꜣ.t",
  "4596": "ĠnĠꞽmn",
  "4597": "-ꞽꜣw.t",
  "4598": "ĠzꜣwĠtw",
  "4599": "ĠḫtĠn",
  "4600": "Ġḫnš",
  "4601": "Ġstn",
  "4602": "ĠrꜣĠn",
  "4603": "yl",
  "4604": "ĠꞽrĠpꜣĠꜥnḫ",
  "4605": "ĠntyĠḥtpĠdy",
  "4606": "ĠpꜣyĠ=sĠšr",
  "4607": "ĠsꜣĠpꜣ-šr-mn",
  "4608": "Ġsy-sbk",
  "4609": "ĠsꜣĠwn-nfr",
  "4610": "Ġꞽ.ꞽr-ḥrĠnꜣĠwꜥb.w",
  "4611": "ĠḥnꜥĠnꜣyĠ=w",
  "4612": "Ġẖr.rĠ=f",
  "4613": "Ġgl-š",
  "4614": "ĠnꜣyĠ=(y)Ġẖrd.ṱ.w",
  "4615": "Ġ1/4",
  "4616": "ĠtꜣĠḥ.t",
  "4617": "Ġḏwf",
  "4618": "eꜣ.t",
  "4619": "Ġsḥm.tĠta",
  "4620": "ĠntyĠqd",
  "4621": "-ꜥy",
  "4622": "ĠḥnꜥĠꞽt-nṯr",
  "4623": "ĠtꜣĠpš(.t)Ġn",
  "4624": "Ġꜥlq",
  "4625": "Ġ=wĠḏd",
  "4626": "-my-tꜣy",
  "4627": "ĠḫprĠm-sꜣ",
  "4628": "-ḫnsw-ꞽw=f-ꜥnḫ",
  "4629": "ĠꞽrmĠnꜣĠnṯr.wĠntyĠḥtp",
  "4630": "ĠpꜣĠšyĠꞽrmĠpꜣĠsḫn",
  "4631": "Ġpẖre.t",
  "4632": "ĠmyĠdy",
  "4633": "Ġšꜥ-mtw",
  "4634": "ĠḥrĠpꜣĠtw",
  "4635": "-h̭y",
  "4636": "ĠdyĠ=n",
  "4637": "-tꜣ-tn",
  "4638": "tꜣ-ꞽḥ.t",
  "4639": "ĠntyĠꞽyĠpꜣĠnṯrĠpꜣĠnty",
  "4640": "ĠntyĠꞽyĠpꜣĠnṯrĠpꜣĠntyĠṯꜣy",
  "4641": "-sn.wĠnꜣĠnṯr.w-mnḫ.w",
  "4642": "Ġbw-ꞽr-tw",
  "4643": "Ġšꜥr",
  "4644": "Ġ(ꞽ.)",
  "4645": "Ġ=fĠnĠ=y",
  "4646": "Ġ=fĠꞽrm",
  "4647": "ĠpꜣyĠ=fĠꞽry",
  "4648": "ĠhnĠnĠ=w",
  "4649": "Ġꞽr.t-ḥr-r.r=w",
  "4650": "Ġꞽw=f-ḫprĠꞽw",
  "4651": "-ꜥy.w",
  "4652": "ĠnḥḥĠnĠmꜣꜥ.t",
  "4653": "pa",
  "4654": "ĠꞽrĠ=wĠnĠ=t",
  "4655": "Ġꜥy.wĠn",
  "4656": "ĠrnĠnĠmtr",
  "4657": "Ġꞽn-nꜥ",
  "4658": "Ġꞽr.ṱĠ=f",
  "4659": "wrĠꜥnḫ-wḏꜣ-snb",
  "4660": "Ġbw-ꞽrĠ=k",
  "4661": "ĠdyĠ=fĠꞽnĠ=w",
  "4662": "-wḫꜣ",
  "4663": "ĠmtwĠ=fĠdy.t",
  "4664": "Ġmr-ꞽb-ptḥ",
  "4665": "Ġm-bꜣḥĠꞽmn",
  "4666": "ĠšmĠnĠ=f",
  "4667": "ĠmtwĠ=fĠḏdĠnĠ=y",
  "4668": "Ġn.ꞽm=w",
  "4669": "(!)",
  "4670": "ĠꞽwĠ=sĠḏd",
  "4671": "ĠꞽwĠ=t",
  "4672": "Ġnty-ꞽwĠ=fĠr",
  "4673": "Ġh̭ꜥm",
  "4674": "=w-s",
  "4675": "ĠꞽwĠ=fĠ(r)Ġdy.t",
  "4676": "th-ꜥꜣ",
  "4677": "Ġꞽ.ꞽrĠpꜣ",
  "4678": "ĠꜥnḫĠpꜣyĠ=fĠby",
  "4679": "-ṯꜣyĠpꜣ-hrwĠr-ḥry",
  "4680": "ĠḏdĠ=wĠnĠ=y",
  "4681": "Ġlb",
  "4682": "Ġbn-ꞽwĠ=yĠdy.t",
  "4683": "Ġlwḥ",
  "4684": "ĠhbĠnĠ=yĠn.ꞽmĠ=s",
  "4685": "ĠpꜣĠḥm-nṯr-(n-)ḥr",
  "4686": "Ġwn-mtwĠ=y",
  "4687": "Ġmt(r)-sẖĠꞽt-nṯr",
  "4688": "ĠḥnꜥĠpꜣyĠ=wĠhp",
  "4689": "Ġꞽ.ꞽryĠmd(.t)ĠnbĠnty-ḥry",
  "4690": "yĠꞽwĠ=f",
  "4691": ".wĠnĠnꜣĠnṯr.w",
  "4692": "Ġn.ꞽmĠ=fĠn",
  "4693": "Ġptlwmys",
  "4694": "ĠpꜣĠsrty",
  "4695": "Ġqlw",
  "4696": "Ġwn-nꜣ.w-ꞽw",
  "4697": "ĠꞽwĠwnĠwꜥ",
  "4698": "Ġꞽ.ꞽrĠ(=y)",
  "4699": "ĠrĠpꜣyĠ=fĠbyĠrĠšms",
  "4700": "Ġpꜣ-ḥtr",
  "4701": "Ġꞽrpy(.w)",
  "4702": "ĠꞽwĠ=wĠ(r)Ġdy.t",
  "4703": "Ġnty-nbĠnktĠnbĠnty",
  "4704": "Ġꜣplw",
  "4705": "Ġrwrw",
  "4706": "ĠꞽwṱĠnꜣ",
  "4707": "ĠšnĠ=w",
  "4708": "Ġ=nĠr",
  "4709": "Ġḥ.t-ḥrĠnb.t",
  "4710": "Ġwꜥb-n-ꞽmn",
  "4711": "Ġyl",
  "4712": "-rꜥ-nsw-nṯr.w",
  "4713": "ĠwꜥbĠrd",
  "4714": "ĠšspĠ=y",
  "4715": "trs",
  "4716": "ĠšmĠ=kĠr",
  "4717": "ĠḥnꜥĠtꜣĠs.tĠn",
  "4718": "ĠḥnꜥĠnꜣyĠ=f",
  "4719": "ĠnĠpꜣĠẖbs",
  "4720": "ĠꞽrmĠ=k",
  "4721": "Ġrny",
  "4722": "ĠꞽnkĠs",
  "4723": "Ġm-sꜣĠ=y",
  "4724": "-pr-ꜥnḫ",
  "4725": "ĠḏdĠpꜣĠḥry",
  "4726": "wsꞽr",
  "4727": "Ġh̭ꜥ(m)",
  "4728": "Ġgns",
  "4729": "Ġm-sꜣĠ=w",
  "4730": "Ġpr-w",
  "4731": "Ġwꜥ.tĠwnw.t",
  "4732": "Ġbw-ꞽrĠ=y",
  "4733": "Ġẖrd.ṱ-ꜥnḫ",
  "4734": "ĠmḥĠ=w",
  "4735": "lẖ",
  "4736": "ĠwšbĠn-ḏr.t",
  "4737": "Ġns-pꜣ-mtr",
  "4738": "synꜣĠtꜣĠmr-sn",
  "4739": "Ġḫꜥr",
  "4740": "Ġsywṱ",
  "4741": "Ġwꜥb-(n-)ꜣ",
  "4742": "Ġbw-ꞽrĠ=s",
  "4743": "rys",
  "4744": "Ġ=ꞽĠꞽw",
  "4745": "Ġtms",
  "4746": "Ġdꜣ",
  "4747": "-zp",
  "4748": "Ġsmꜥ",
  "4749": "Ġꞽbꜣ",
  "4750": "ĠḥrĠ=fĠn",
  "4751": "fw",
  "4752": "Ġ(ꞽm.ꞽ)",
  "4753": "Ġꞽmꜣḫ.wt-ḫr-nṯr-ꜥꜣ",
  "4754": "ĠšsĠmnḫ.t",
  "4755": "Ġḥꜣ.t(ꞽ)-ꜥ",
  "4756": "Ġṯ(ꜣ)zĠn(.ꞽ)Ġnḥb.tĠ=f",
  "4757": "Ġꜥmꜥ",
  "4758": "Ġsẖ.t",
  "4759": "Ġ=fĠwr",
  "4760": "Ġꞽri̯.ḫrĠ=kĠrĠ=s",
  "4761": "Ġwꜥb.n",
  "4762": "n.w.PL",
  "4763": "Ġzꜣb-zẖꜣ.w",
  "4764": "Ġꞽri̯Ġ=f",
  "4765": "Ġḏ(d)-mdwĠḏ(d)-mdw",
  "4766": "-sšm-nfr",
  "4767": "Ġḥsi̯",
  "4768": "Ġmnw-ḥrĠnḫt",
  "4769": "Ġḥmꜣ-kꜣ(=ꞽ)",
  "4770": "Ġꜥnḫ-(w)",
  "4771": "Ġꜥnḫ-(w)ḏꜣ-s",
  "4772": "Ġꜥnḫ-(w)ḏꜣ-s(n",
  "4773": "Ġꜥnḫ-(w)ḏꜣ-s(nb)",
  "4774": "ĠsḏbĠ=fĠꜥnḫĠ=f",
  "4775": "Ġm-ḏd",
  "4776": "nĠ=f",
  "4777": "Ġwsf",
  "4778": "Ġꜣkr",
  "4779": "Ġḥr.wĠꞽpĠ=f",
  "4780": "Ġ(ꞽ)ḫ.tĠwꜥ.t",
  "4781": "Ġbnw.t",
  "4782": "ĠḥrĠqꜣb.tĠ=f",
  "4783": ".tĠmꜣꜥ.t",
  "4784": ".tĠmꜣꜥ.t-ḫrw",
  "4785": "Ġꞽdb",
  "4786": "ĠꞽrĠbw",
  "4787": "ḏꜥ",
  "4788": "Ġnṯr-nfr",
  "4789": "ĠnĠm(w)tĠ=fĠnĠm(w)tĠwnꞽsĠpn",
  "4790": "ĠnĠkꜣ(.ꞽ)-m-ꜥnḫ",
  "4791": "Ġḥq.t",
  "4792": "Ġꞽṯi̯.t",
  "4793": "ĠḫꜣĠtʾĠḫꜣĠḥnq.tĠḫꜣ",
  "4794": "Ġzꜣ-ꞽb",
  "4795": "sr.t",
  "4796": "Ġn(.ꞽ)-nṯr-nb.tꞽ",
  "4797": "Ġꜥḫm",
  "4798": "Ġꞽrr.t",
  "4799": "Ġḏꜣ.t",
  "4800": "Ġ=snĠr",
  "4801": "-ḫnt(.w)",
  "4802": "Ġḫpp!.(w)t",
  "4803": "Ġnm.tꞽ-nḫtĠpn",
  "4804": "ĠꞽtĠ=f",
  "4805": "Ġꞽ:bꜣ",
  "4806": "Ġ=fĠrꜥ",
  "4807": "Ġḥw.t-wr.t",
  "4808": "ĠꜥĠ=k",
  "4809": "Ġꞽn.wĠpr",
  "4810": "g.t",
  "4811": "Ġšmi̯.nĠ=k",
  "4812": "Ġnḏri̯",
  "4813": "(.w)Ġn(.ꞽ)",
  "4814": "Ġ(w)sr(.w)Ġn(ꞽ).tĠmꞽĠnĠ=kĠꞽr(.t)-ḥr.w",
  "4815": "ĠꞽmĠn",
  "4816": "Ġsḏm.w",
  "4817": "Ġꞽrꞽ",
  "4818": ".tꞽĠr",
  "4819": "ĠrnĠ=fĠn(.ꞽ)",
  "4820": ".nĠ=sn",
  "4821": "(w).t(ꞽ)",
  "4822": "Ġḥꜣ.tĠḫt",
  "4823": "ĠwnꞽsĠr",
  "4824": "-špss",
  "4825": "Ġtp-ꜥ",
  "4826": "Ġ=kĠḏ(d)-mdw",
  "4827": ".(ꞽ)-nṯr",
  "4828": "ĠḏdĠnĠ=k",
  "4829": "-hꜣ",
  "4830": "ḥĠm",
  "4831": "Ġšmi̯ĠnĠ=k",
  "4832": "Ġšmi̯ĠnĠ=kĠwḏĠ=kĠmdwĠn",
  "4833": "Ġꞽmi̯Ġ=sn",
  "4834": "Ġm(ꞽ)",
  "4835": "Ġḥr.ꞽ-tp-nḫb",
  "4836": "Ġbꞽ(ꜣ)",
  "4837": "Ġnr",
  "4838": "Ġ=fĠꞽwĠ=f",
  "4839": "Ġḏi̯.nĠḥr.w",
  "4840": "i̯Ġsw",
  "4841": "ĠmĠtp",
  "4842": "Ġḥm-nṯr-sꜣḥ.w-rꜥw",
  "4843": "Ġꞽp(.t)Ġšmꜥ.w",
  "4844": "Ġḏꜣi̯",
  "4845": ".wĠḥr",
  "4846": ".wĠnṯr-ꜥꜣ",
  "4847": "Ġms.w.PL",
  "4848": "rs",
  "4849": "(.t)-ꞽb",
  "4850": "Ġḥnk.t",
  "4851": "(.w)Ġḥr",
  "4852": "Ġṯꜣ.tꞽ",
  "4853": "-ꜣḫ.t-ḫwi̯=f-wꞽ",
  "4854": "ĠḫrĠkꜣĠ=f",
  "4855": "r-mꜣ",
  "4856": "Ġwpi̯-rnp.tĠḏḥw.t(y)tĠtp.ꞽ-rnp.tĠwꜣg",
  "4857": "Ġsmr-wꜥ.tꞽĠḫrp-n",
  "4858": "Ġs.t-kꜣ(=ꞽ)",
  "4859": "ĠnbĠsḫm",
  "4860": "Ġdšr.t",
  "4861": "Ġgn",
  "4862": "Ġ=fĠmꜣ",
  "4863": "-ḥr-ꞽ",
  "4864": "Ġꞽr.ꞽ-pꜥ.tĠḥꜣ.tꞽ-ꜥ",
  "4865": "Ġk(ꜣ=ꞽ)",
  "4866": "Ġnb.tĠnfr.t",
  "4867": "Ġ=kĠn(ꞽ).t",
  "4868": "Ġmri̯.w",
  "4869": "ꜣ.t)",
  "4870": "-šw",
  "4871": "-ḫwi̯=f",
  "4872": "-(ꞽ)ḫ.t",
  "4873": "-mḏꜣ.t-nṯr",
  "4874": "Ġḫrp-šn",
  "4875": "Ġẖr(.ꞽ)-tp-nswt",
  "4876": "Ġsms",
  "4877": "Ġṯḥn.w",
  "4878": ".wꞽ.DU",
  "4879": "r-mḏꜣ.t",
  "4880": "tĠ=f",
  "4881": "Ġqrs.t(ꞽ)Ġ=fĠm",
  "4882": "-rtḥ",
  "4883": "i̯.nĠ=fĠḫrĠ=k",
  "4884": "Ġpr.t-ḫrwĠtʾĠḥnq.tĠkꜣ.PL",
  "4885": "Ġzẖꜣ.w.PL",
  "4886": "Ġḫru̯",
  "4887": "s.tt",
  "4888": "-pr-",
  "4889": "Ġnṯr.PLĠm",
  "4890": "Ġsnq",
  "4891": "Ġꜥšꜣ.w",
  "4892": "Ġnfr-ḥtp-ẖnm.w",
  "4893": "Ġḥmw.t",
  "4894": "-n(ꞽ)swt",
  "4895": "Ġtp-ḥsb",
  "4896": "Ġm-bꜣḥĠ=k",
  "4897": "ꜥḥꜥ",
  "4898": "Ġꞽ:zꞽ",
  "4899": "Ġwt.ḫrĠ=kĠswĠḥrĠꞽwfĠwꜣḏ",
  "4900": "Ġwt.ḫrĠ=kĠswĠḥrĠꞽwfĠwꜣḏĠhrwĠtp.ꞽ",
  "4901": "Ġqrf",
  "4902": "stn",
  "4903": "Ġs.t.PL",
  "4904": "fr.w",
  "4905": "Ġkk",
  "4906": "-6",
  "4907": "kꜣ.t",
  "4908": "ĠpꜣĠꜣ",
  "4909": "Ġm-ẖn",
  "4910": "Ġswꜣḏ",
  "4911": "Ġḫpi̯Ġ=fĠmĠḥtp",
  "4912": ".PLĠꞽw",
  "4913": "-tꜣ.DU",
  "4914": "-ḥm.t",
  "4915": "Ġꞽr(.t).DU",
  "4916": "Ġ=sĠꞽw",
  "4917": "Ġḏnn.tĠ=f",
  "4918": "Ġzꜣb-sḥḏ",
  "4919": ".tꞽĠḥr",
  "4920": ".tĠmw.tĠ=f",
  "4921": "ẖn",
  "4922": "rp",
  "4923": "Ġ=fĠwꜥ",
  "4924": "Ġšd.t",
  "4925": "Ġḥmw",
  "4926": "ĠḥnꜥĠpsḏ.t",
  "4927": "Ġšm.t",
  "4928": "Ġḫft.ꞽ",
  "4929": ".nĠ=fĠm",
  "4930": "m.w.PL",
  "4931": "Ġḥr.ꞽ-z",
  "4932": "Ġtk",
  "4933": "Ġꜥꜣ(.t)",
  "4934": ".yw",
  "4935": "-r-ḏr",
  "4936": "Ġbtꜣ",
  "4937": "ĠꞽyĠm",
  "4938": "ĠtꜣĠꞽꜣw.t",
  "4939": "Ġr-ꞽqrĠzp-2",
  "4940": "Ġpry",
  "4941": "Ġꞽmn-rꜥĠnsw",
  "4942": "Ġ⸗kĠmꞽ",
  "4943": "kꜣ~bw",
  "4944": "kꜣ~bw~tꞽ",
  "4945": "Ġꞽ:ꞽri̯Ġ⸗tw",
  "4946": "ĠnfrĠsnb",
  "4947": "Ġꜥḥꜥ.nĠstẖ",
  "4948": "ĠmnĠmsi̯.n",
  "4949": "-nḥm",
  "4950": "Ġ⸗twĠnĠ⸗k",
  "4951": "Ġꞽri̯Ġ⸗f",
  "4952": "-rʾ-ꜥ",
  "4953": "Ġpr-ḥḏĠn",
  "4954": "Ġtw⸗kĠmꞽ",
  "4955": "~ṯꜣ",
  "4956": "~ꞽꜣ",
  "4957": "ĠnĠpꜣĠqd",
  "4958": "Ġswḏꜣ-ꞽb",
  "4959": "ĠtꜣĠmr",
  "4960": "ĠrĠrmṯ",
  "4961": "Ġwbḫ",
  "4962": "Ġskr",
  "4963": "ĠpꜣĠdmy",
  "4964": "ĠrĠtꜣĠp.t",
  "4965": "ĠpꜣĠkꜣ",
  "4966": "Ġstbḥ",
  "4967": "-sn.wĠꞽrmĠnꜣĠnṯr.w",
  "4968": "ĠrmṯĠnĠpꜣĠtꜣ",
  "4969": "ĠsẖĠpa",
  "4970": "ĠšmĠ=w",
  "4971": "-ḥwṱ",
  "4972": "Ġr-mḥ",
  "4973": "-(n-)sbk-nb-pay",
  "4974": "r-dyw",
  "4975": "ĠꞽrmĠnꜣyĠ=fĠrmṯ.w",
  "4976": "-ꞽ.ꞽr-",
  "4977": "ĠpꜣyĠ=(y)Ġsn",
  "4978": "ĠsꜣĠns-mn",
  "4979": "-pꜣy",
  "4980": "=w-tꜣ.wy",
  "4981": "ĠẖrĠpꜣ",
  "4982": "ĠmtwĠ=kĠs",
  "4983": "Ġr.rĠ=kĠr",
  "4984": "Ġḥty",
  "4985": "Ġ100",
  "4986": "Ġḥꜥpy",
  "4987": "ĠpꜣyĠ(=y)Ġsn",
  "4988": "ĠnĠpꜣyĠ=f",
  "4989": "Ġtby.t",
  "4990": "Ġ(n-)mn",
  "4991": "ĠꞽwĠ=yĠrĠšꜥšꜥ",
  "4992": "ĠḫrwĠ=fĠm",
  "4993": "Ġꜥnḫ-mr-wr",
  "4994": "ĠpꜣyĠ=y",
  "4995": "ĠꞽwĠbn-pwĠ=y",
  "4996": "ĠꞽnĠpꜣy",
  "4997": "Ġ=fĠnĠ=w",
  "4998": "ĠnꜣĠr",
  "4999": "ĠꞽwĠ=(y)",
  "5000": "ĠꞽnĠpꜣĠnty",
  "5001": "Ġ(r-)ḏbꜣĠpꜣ",
  "5002": "Ġsbk-nb-tꜣ-tn",
  "5003": "ĠꞽwĠ=kĠr",
  "5004": "ge",
  "5005": "Ġꞽh̭y.w",
  "5006": "ĠnꜣyĠ=wĠhyn.w",
  "5007": "Ġwꜥb-n-ꜣlg",
  "5008": "Ġꜥty",
  "5009": "ĠtꜣĠdny.tĠḥm-nṯr-n-ꞽmn",
  "5010": "Ġ(ꞽ.)ꞽr",
  "5011": "Ġyr",
  "5012": "ĠḥrĠ(sꜣ)",
  "5013": "Ġm-sꜣ-nꜣy",
  "5014": "Ġtš-nfrĠ(sꜣ)Ġmꜣꜥ-rꜥ",
  "5015": "ĠpꜣĠssw",
  "5016": "pa-ꜣs.t",
  "5017": "ĠnĠpꜣĠḥry",
  "5018": "Ġšbt",
  "5019": "Ġꞽn-nꜥ.k",
  "5020": "Ġḥr-nḏ-ꞽt=f",
  "5021": "Ġtꜣ-šr(.t)",
  "5022": "Ġbn-pwĠ=fĠdy.t",
  "5023": "ĠꞽĠwsꞽrĠḫnṱ-ꞽmnṱ",
  "5024": "Ġdy.tĠꜥnḫĠn",
  "5025": "Ġr-ẖryĠẖn",
  "5026": "Ġr-ẖryĠẖnĠḏꜣḏꜣ",
  "5027": "ṱe.t",
  "5028": "Ġꞽ.ꞽr-ḥrĠ=y",
  "5029": "Ġḥr-mh̭y",
  "5030": "Ġšl",
  "5031": "ĠnĠpꜣĠtš",
  "5032": "-rnn.t",
  "5033": "Ġšn-h",
  "5034": "ĠꞽwĠbn-pwĠ=k",
  "5035": "ĠhyĠrꜥ-ḥr",
  "5036": ".ḥrĠ=y",
  "5037": "ĠmrĠ=fĠs",
  "5038": "Ġḏḏy",
  "5039": "Ġsbty",
  "5040": "Ġ=fĠm-sꜣ",
  "5041": "Ġnꜣ.w-ꜥn",
  "5042": "ĠnꜣĠrmṯ.wĠnty",
  "5043": "Ġdy.tĠpḥ",
  "5044": "ĠpꜣyĠ=fĠgy",
  "5045": "ĠnꜣyĠ=fĠm",
  "5046": "tg",
  "5047": "Ġwḏꜣ-smꜣ-tꜣ.wyĠsꜣĠpꜣ-dy-ꜣs.t",
  "5048": "Ġpꜣ-dy-wsꞽr-ḥp",
  "5049": "Ġḥr-ꜣt.ṱ",
  "5050": "Ġdny.t-pš",
  "5051": "-n-ḥp-ꜥnḫ",
  "5052": "Ġr.rĠ=fĠn",
  "5053": "Ġpꜣ-šr-ḫnsw",
  "5054": "Ġnty-ḥryĠn",
  "5055": "ĠḫrĠnw",
  "5056": "Ġꜣwy",
  "5057": "Ġḥ.t-sr",
  "5058": "Ġꞽ.ꞽrĠ=s",
  "5059": "ĠnĠpꜣĠrmṯ",
  "5060": "ĠsꜣĠpꜣ-dy-ḥr",
  "5061": "ĠtꜣĠmr-ꞽt.ṱ",
  "5062": "Ġmd.t-mꜣꜥ.tĠtꜣy",
  "5063": "Ġ=fĠnꜣ",
  "5064": "ĠtꜣĠꞽmy.t",
  "5065": "Ġḥp-wsꞽr",
  "5066": "Ġptw",
  "5067": ".bn-pw",
  "5068": ".ṱĠ=wĠn",
  "5069": "Ġnty-ꞽ.ꞽrĠ=k",
  "5070": "ĠꞽrmĠnꜣĠnty",
  "5071": "Ġꜣsq",
  "5072": "Ġꞽw=f-ꜥnḫ",
  "5073": "Ġpa-tꜣ",
  "5074": "Ġḥꜣ.ṱĠ=f",
  "5075": "ĠntyĠẖn",
  "5076": "-mḏy",
  "5077": "-mḏy-nṯr",
  "5078": "ĠrĠdy.tĠꞽr",
  "5079": "ĠtmĠꞽr",
  "5080": "Ġsḏm-ꜥš",
  "5081": "-mt",
  "5082": "ĠꞽrmĠrmṯĠnbĠnty",
  "5083": "ĠšspĠ=wĠṱ",
  "5084": "Ġšꜥ(.t)",
  "5085": "qmq",
  "5086": "ĠmtwĠ=kĠths",
  "5087": "Ġbw-ꞽrĠpꜣ",
  "5088": "Ġḥr-ḏꜣḏꜣ",
  "5089": "Ġẖr-rnp.t",
  "5090": "lwmysĠꜥnḫ-wḏꜣ-snb",
  "5091": "lmy",
  "5092": "ĠꞽmĠ=sn",
  "5093": "ĠꞽꜥbĠnĠ=k",
  "5094": "Ġ=sĠḥr",
  "5095": "ĠnĠwr",
  "5096": "Ġtfn.t",
  "5097": "Ġꞽr.w",
  "5098": "Ġdns",
  "5099": "Ġ(ꞽm.ꞽ)-wr",
  "5100": "Ġ(ꞽm.ꞽ)-wr.(t)",
  "5101": "hpĠ=fĠn",
  "5102": "Ġḥtp-ḥr=s",
  "5103": "-(n-)tꜣ",
  "5104": "tf.t",
  "5105": "Ġꞽtḥ.t",
  "5106": "Ġẖnm(.w)",
  "5107": "Ġbꜣq",
  "5108": "(.t)-ḫrw",
  "5109": "Ġꜥnḫ.PL",
  "5110": "ĠnĠ=kĠrḏwĠpri̯Ġꞽm",
  "5111": "Ġ=kĠnĠwrḏ",
  "5112": "Ġ=kĠnĠwrḏĠꞽbĠ=k",
  "5113": "-ḏd.w",
  "5114": "Ġẖkr.t-nswt-wꜥ.tt",
  "5115": "Ġḫtm.w-nṯr-wꞽꜣ-bꜣ-nṯr.w",
  "5116": "Ġḫtm.w-nṯr-wꞽꜣ-dwꜣ",
  "5117": "Ġḫnt(.ꞽ)-zḥ-nṯr",
  "5118": "Ġnb(.t)Ġnfr.t",
  "5119": "ĠnhpĠ=fĠnhpĠwnꞽsĠpn",
  "5120": "Ġ=fĠrḏ",
  "5121": "Ġzꜣ.t-nswtĠẖkr.t-nswt",
  "5122": "-sḫm.w",
  "5123": "ĠꞽwĠ=ꞽ",
  "5124": "Ġ=kĠrḫ",
  "5125": "Ġhꞽ",
  "5126": "-ḥ(ꜣ)b.t",
  "5127": "ĠḫsfĠw",
  "5128": "ĠḫsfĠ=kĠꜣ",
  "5129": "Ġfnd",
  "5130": "Ġḥr(.ꞽ)-tp",
  "5131": "Ġzꜣ.t-nzw",
  "5132": "g(ꜣ.w)",
  "5133": "-ḥz",
  "5134": "ḥḏ",
  "5135": "Ġḥtpꞽ",
  "5136": "Ġḥr.ꞽ-sštꜣ-n-w",
  "5137": "Ġkm-wr",
  "5138": "Ġṯrp",
  "5139": "Ġꞽyi̯ĠnĠ=k",
  "5140": "-n.ꞽ-nswt",
  "5141": "ĠmĠrnĠ=kĠn(.ꞽ)",
  "5142": "Ġꞽt(ꞽ)Ġ=k",
  "5143": ".t(w)",
  "5144": "Ġsḏꜣ",
  "5145": ".wĠn.ꞽ",
  "5146": "(.t)-nṯr",
  "5147": ".wĠnḏ",
  "5148": "ĠꞽnĠkꜣĠššꞽ",
  "5149": "Ġzꜣ-rꜥ",
  "5150": "ĠmĠꞽri̯",
  "5151": "ĠꞽrĠp.t",
  "5152": "Ġꞽri̯Ġzẖꜣ.w",
  "5153": "ṯs",
  "5154": ".t(ꞽ)w",
  "5155": "Ġḏꜣ.tꞽ",
  "5156": "-pꞽ",
  "5157": "Ġpšš",
  "5158": "-mry",
  "5159": "Ġsmr-pr",
  "5160": "Ġmrr.w-nb=f",
  "5161": "Ġꞽty",
  "5162": "-n-nswtĠsšm-nfr",
  "5163": "ĠprĠ=k",
  "5164": "Ġhm",
  "5165": "ĠḫmĠwnꞽs",
  "5166": "r-ptḥ",
  "5167": "-ꞽt(ꞽ)",
  "5168": "i̯Ġ=kĠnĠ=k",
  "5169": "-pḏ.t",
  "5170": "Ġꞽmꜣḫ.w-ḫr-wsꞽr",
  "5171": "Ġꜥ.DUĠ=kĠḥꜣ",
  "5172": "Ġ=fĠḥꜣ",
  "5173": "Ġḫnt(.ꞽ)-ꞽr",
  "5174": "(w",
  "5175": "Ġḥr.wĠn.(ꞽ)-nṯr",
  "5176": "ĠꞽbĠ=ꞽ",
  "5177": "ĠmnĠm",
  "5178": "Ġsꜥb",
  "5179": "Ġḫwꞽ",
  "5180": "-wn.t",
  "5181": "Ġwpi̯ĠrʾĠ=kĠꞽmĠ=s",
  "5182": "Ġzẖꜣ(.w)",
  "5183": "d.tꞽ",
  "5184": "Ġwnn-nfr",
  "5185": "Ġꜥḏ-mr",
  "5186": "Ġsqꜣ",
  "5187": "ĠhꜣĠ(w)sr(.w)Ġn(ꞽ).t",
  "5188": "Ġzn",
  "5189": "Ġšzp.nĠ=k",
  "5190": "-šnw.t",
  "5191": "Ġsḫ.t-ꞽꜣ",
  "5192": "Ġ(n)bs",
  "5193": "Ġḏr.w",
  "5194": "Ġ(ꞽ)m(.ꞽ)-rʾ-mšꜥ",
  "5195": "Ġꞽtḥ",
  "5196": "Ġꞽꜣm(.t)-ꞽb",
  "5197": "Ġswn.t",
  "5198": "Ġsbk-nḫt",
  "5199": "ĠḫrĠkꜣĠ=fĠzꞽ",
  "5200": "hm",
  "5201": "Ġgmi̯.t",
  "5202": "Ġn.tt",
  "5203": "ĠnĠ=kĠsw",
  "5204": "ĠmĠḥ(ꜣ)b",
  "5205": "ĠmĠẖr.t-nṯr",
  "5206": "Ġꞽwi̯.nĠḥr.w",
  "5207": "Ġ(ꞽ)r(.ꞽ)-pꜥ(.t)Ġḥꜣ.tꞽ-ꜥ",
  "5208": "(ꜣ.t)",
  "5209": "Ġꞽ:dr",
  "5210": "Ġpr.t-ḫrwĠn",
  "5211": "-ḥtp.w",
  "5212": "ĠrĠꞽri̯.t",
  "5213": "Ġꜥḏ-m",
  "5214": "Ġḫrw.y",
  "5215": ".(y)tĠ=f",
  "5216": "mĠ=f",
  "5217": "Ġtfn.wt",
  "5218": "Ġwdp",
  "5219": "ĠšspĠ=f",
  "5220": "Ġsḫr.w",
  "5221": "Ġdi̯.t",
  "5222": "Ġḥr(.ꞽ)-ꞽb",
  "5223": "Ġḥm-nṯr-nfr-ꞽr-kꜣ-rꜥw",
  "5224": "ĠḫmĠn",
  "5225": "Ġsbꜣ.yt",
  "5226": "Ġntf",
  "5227": "Ġꞽꜣd.t",
  "5228": "ĠtnĠn",
  "5229": "ĠnĠ=fĠn",
  "5230": "Ġ3",
  "5231": "Ġrdi̯.t",
  "5232": "ĠḥrĠmw",
  "5233": "Ġhw",
  "5234": "Ġḥnm",
  "5235": "Ġḥnmm.t",
  "5236": "-tm",
  "5237": "ĠrĠpḥ",
  "5238": "ĠḥrĠwꜣ.t",
  "5239": "Ġzꜣ(.t)",
  "5240": "Ġwbn.wĠ=f",
  "5241": "ĠḫrwĠ=k",
  "5242": "-pẖ",
  "5243": "Ġbꜣs.tt",
  "5244": ".wĠnfr-",
  "5245": "Ġrwꞽ",
  "5246": "Ġsms.w-pr",
  "5247": "Ġꞽsk",
  "5248": "Ġḫnt(ꞽ)",
  "5249": "Ġwpw",
  "5250": "r.t.PL",
  "5251": "Ġꞽni̯.nĠ=fĠnĠ=k",
  "5252": "Ġs.t-n",
  "5253": "Ġwn.w",
  "5254": "Ġꞽ:mn",
  "5255": ".tꞽ.DU",
  "5256": "Ġḥtp-ḏi̯ĠnswtĠḥtp-ḏi̯Ġꞽnp.wĠnb-tꜣ-ḏsr",
  "5257": "ĠsḏmĠr",
  "5258": "ĠnfrĠr",
  "5259": "Ġs.tĠn",
  "5260": "Ġsḫm.t",
  "5261": "Ġḏꜥr",
  "5262": "-ꜥꜣ-n",
  "5263": "-wꜣ.wt",
  "5264": "Ġtp-n",
  "5265": "(w)Ġ=k",
  "5266": "nꜥ",
  "5267": "ĠkyĠn",
  "5268": "tĠr",
  "5269": "ĠꞽrĠn",
  "5270": "ĠꜥḥꜥĠ=k",
  "5271": "-mr.y",
  "5272": "-ḥr.t",
  "5273": "Ġ=kĠꞽrĠ=f",
  "5274": "d.tĠm",
  "5275": "Ġwr-ḥ",
  "5276": "ĠpꜣĠḥm-nṯr",
  "5277": "ĠtꜣĠẖr",
  "5278": "Ġms.t",
  "5279": "Ġẖ(.t)",
  "5280": "ĠzꜣwĠtwĠr",
  "5281": "ĠꜥḥꜥĠn",
  "5282": "Ġpsd",
  "5283": "sḫ",
  "5284": "y.tĠꞽw",
  "5285": "tꜣ.t",
  "5286": "ꜥḏ",
  "5287": "ĠꜥšĠn",
  "5288": "ĠꞽmĠ⸗f",
  "5289": "Ġꞽmn-rꜥĠnsw-nṯr.PL",
  "5290": "gꜣ~",
  "5291": "Ġhꜣn",
  "5292": "Ġꞽ~ꞽrʾ~mꜥ",
  "5293": "Ġ⸗snĠn",
  "5294": "Ġꞽni̯.twĠnĠ⸗kĠzẖꜣ.PL",
  "5295": "Ġꞽni̯.twĠnĠ⸗kĠzẖꜣ.PLĠpn",
  "5296": ".ṱĠ⸗fĠm",
  "5297": "ĠtꜣyĠ⸗kĠmꜥ~ꞽrʾ~",
  "5298": "ĠtꜣyĠ⸗kĠmꜥ~ꞽrʾ~kꜣ~bw~tꞽ",
  "5299": ".PLĠ⸗k",
  "5300": "Ġrḏi̯.tĠrḫĠpꜣyĠ⸗ꞽĠnb",
  "5301": "Ġ⸗nn",
  "5302": "Ġ⸗sw",
  "5303": "Ġwn.ꞽnĠ⸗tw",
  "5304": ".PLĠqn.w",
  "5305": "ĠꞽwĠ⸗snĠḥr",
  "5306": "Ġꜥḏꜣ",
  "5307": "ĠpꜣĠprĠn",
  "5308": "Ġṯꜣi̯.y",
  "5309": "Ġḥꜥ.tĠ⸗k",
  "5310": "ĠnꜣyĠ⸗st",
  "5311": "Ġḥr.ꞽ-zꜣ.w.PL",
  "5312": "Ġḥr.ꞽ-zꜣ.w.PL-zẖꜣ.w",
  "5313": "Ġzẖꜣ.wĠpn-tꜣ",
  "5314": "Ġzẖꜣ.wĠpn-tꜣ-wr.t",
  "5315": "tʾ",
  "5316": ".wĠpꜣ",
  "5317": "ĠrnĠ⸗k",
  "5318": "ĠmĠ⸗kꞽ",
  "5319": "ĠpꜣĠꞽw",
  "5320": "ĠpꜣĠbꜣk",
  "5321": "ĠpꜣyĠ⸗fĠsnĠꜥꜣ",
  "5322": "Ġ⸗kĠnĠ⸗ꞽ",
  "5323": ".ṱĠn",
  "5324": "ĠšmĠn",
  "5325": "ĠnwĠnb",
  "5326": "-ꜥꜣy",
  "5327": "Ġꞽry.w",
  "5328": "Ġꞽ.ꞽr-ḥrĠnꜣ",
  "5329": "ĠtꜣĠpš(.t)",
  "5330": "Ġn.ꞽmĠ=wĠr",
  "5331": "Ġbrnygꜣ",
  "5332": "kp",
  "5333": "-h̭",
  "5334": "-ꞽwꞽw",
  "5335": "-pꜣy=w-tꜣ.wy",
  "5336": "ĠpꜣĠḥm-nṯr-tp",
  "5337": "-dmy",
  "5338": "-mr-ꞽ",
  "5339": "Ġ=(w)",
  "5340": "ĠspĠnb",
  "5341": "ĠꞽrĠnĠ=y",
  "5342": "-ḏr.t.ṱ",
  "5343": "Ġdy.tĠnĠ=k",
  "5344": "Ġ=sĠ(r)",
  "5345": "Ġḥtp-tꜣ",
  "5346": "Ġḥtp-tꜣ-nsw",
  "5347": "ẖr-ḫnsw",
  "5348": "ĠḥḏĠn",
  "5349": "ĠḫprĠ=w",
  "5350": "Ġgl-šr",
  "5351": "Ġsnde",
  "5352": "Ġpr-ꜥꜣ.w",
  "5353": "-n-wpy",
  "5354": "Ġh̭m-ẖl",
  "5355": "Ġ=fĠm-šs",
  "5356": "Ġꜥlq-ḥḥ",
  "5357": "Ġꜥnḫ-ḥr",
  "5358": "ĠgmĠ=w",
  "5359": "ĠḫrwĠ=fĠm-my-tꜣy",
  "5360": "Ġnꜣ.w-nḫt.ṱ",
  "5361": "Ġtw=f-ḥꜥpyĠsꜣĠpꜣ-dy-ꞽtm",
  "5362": "Ġꞽwnw-mnṱ",
  "5363": "Ġwrh̭",
  "5364": "ĠṯꜣyĠ=f",
  "5365": "Ġpr-ꞽw-lq",
  "5366": "Ġge",
  "5367": "Ġs.t-ḏbꜣ",
  "5368": "Ġꞽw.wĠnĠ=k",
  "5369": "Ġḥny",
  "5370": "ĠnꜣĠnṯr.w-nty-pr",
  "5371": "ĠmtwĠ=kĠdy.tĠswr",
  "5372": "eĠꞽw",
  "5373": ".ṱĠ=kĠr",
  "5374": "Ġqrw",
  "5375": "Ġsrpy",
  "5376": "Ġm-ꞽrĠwrr",
  "5377": "Ġmd(.t)Ġnb",
  "5378": "ĠtꜣĠsbꜥ",
  "5379": "Ġꞽ.ꞽrĠ=kĠḏd",
  "5380": "Ġḏr(.t)",
  "5381": "ĠḏdĠ=yĠn",
  "5382": "Ġḥr-pa-ꜣs.t",
  "5383": "Ġ=fĠdy.t",
  "5384": "-mny",
  "5385": "Ġḥꜥy",
  "5386": "ĠpꜣyĠ=fĠpr",
  "5387": "Ġꜣl",
  "5388": "Ġmḥ-3",
  "5389": "wl",
  "5390": "lĠn",
  "5391": "-r.r=w",
  "5392": "ĠswĠꜥr",
  "5393": "ĠswĠꜥrqy",
  "5394": "Ġr.ꞽny",
  "5395": "Ġḥ.tĠmḥ",
  "5396": "ĠsꜣĠpꜣ-ꜥẖm",
  "5397": "ĠpꜣĠrmṯ-rḫ",
  "5398": "ĠmnĠpꜣ",
  "5399": "Ġḥr-ꜣt.ṱĠ=f",
  "5400": "Ġmw.tĠ=fĠta-wꜣ",
  "5401": "ĠꜥnḫĠꞽmn",
  "5402": "Ġ(tꜣ)",
  "5403": "Ġr.ḥrĠ=tn",
  "5404": "Ġr.ḏdyĠs",
  "5405": "=(w)",
  "5406": "ĠsꜣĠṯꜣy-n.ꞽm=w",
  "5407": "ĠtꜣĠmy.tĠn",
  "5408": "Ġ=fĠ(n)",
  "5409": "ĠmyĠwḏꜣ",
  "5410": "Ġm-sꜣĠ=k",
  "5411": "ĠrĠpꜣĠnty",
  "5412": "ĠꞽnĠ=wĠnĠ=t",
  "5413": "Ġwr-dy",
  "5414": "Ġwr-dy-ꞽmn-nw.t",
  "5415": "qnqn",
  "5416": "Ġbn-ꞽwĠ=(y)",
  "5417": "Ġ=sĠ(n)",
  "5418": ".m-bꜣḥ",
  "5419": "ĠnꜣĠhyn.wĠnĠpꜣ",
  "5420": "Ġdny.tĠ2/3",
  "5421": "ĠtꜣyĠḥn",
  "5422": "ĠpꜣĠsẖĠ(n-)rn",
  "5423": "Ġtbe.tĠn",
  "5424": "pe",
  "5425": "ĠḏdĠ=fĠnĠ=s",
  "5426": "ĠpꜣyĠ=fĠdmy",
  "5427": "ĠrmṯĠr",
  "5428": "ĠḏdĠnꜣ",
  "5429": "Ġꞽḥ(.t)",
  "5430": "Ġta-nꜣ-wr.w-ꜥwĠta",
  "5431": "Ġta-nꜣ-wr.w-ꜥwĠtaĠḥr-tꜣy=f",
  "5432": ".tĠmw.tĠ=s",
  "5433": "Ġta-tw-tꜣ",
  "5434": "Ġmh̭y",
  "5435": "Ġḏdtḥ",
  "5436": "Ġwnš-k",
  "5437": "Ġwnš-kwf",
  "5438": "-qnqn",
  "5439": "ĠpꜣĠsrtyqws",
  "5440": "ĠḏdĠmy",
  "5441": "Ġkṱ.t",
  "5442": "Ġbn-pwĠ=yĠꞽrĠmd(.t)",
  "5443": "-sḥm.t",
  "5444": "Ġmḥ(ṱ)",
  "5445": "Ġby-(n-)ḥp-wsꞽrĠsḏm-ꜥš",
  "5446": ".ṱ=f",
  "5447": "Ġmw.tĠ=(f)Ġtꜣ",
  "5448": "ĠpꜣĠh̭ꜥm",
  "5449": "-n-ḥp-ꜥnḫĠpꜣĠnṯr-ꜥꜣ",
  "5450": "ĠḫrĠtw",
  "5451": "ĠwꜣḥĠ=wĠnĠ=k",
  "5452": "ĠtwĠnĠ=k",
  "5453": "-y",
  "5454": "ĠrĠdy.tĠs",
  "5455": "ĠsꜣĠhry",
  "5456": "ĠpꜣyĠ=(y)ĠnbĠꜥꜣĠꞽ",
  "5457": "Ġpꜣ-dy-mn",
  "5458": "ĠꞽrĠnĠ=t",
  "5459": "Ġrd.ṱ",
  "5460": "Ġpr-mnṱ",
  "5461": "-mꜣꜥ.tĠn-wš-n",
  "5462": "Ġꞽ.ꞽr=s",
  "5463": "Ġꞽ.ꞽr=s-ḫpr",
  "5464": "Ġ=wĠsĠn",
  "5465": "ĠdyĠ=(y)",
  "5466": "Ġꞽr.t-ḥr-r=w",
  "5467": "ĠpꜣĠšrĠn",
  "5468": "ĠḥrĠsꜣĠpa",
  "5469": "ĠꞽrmĠnꜣyĠ=fĠsn.w",
  "5470": "Ġwsh̭ꜣ.t",
  "5471": "-ꜣr",
  "5472": "Ġm-ẖr-",
  "5473": "Ġm-ẖr-hrw",
  "5474": "ĠrĠtꜣy=w-ḏy",
  "5475": "Ġgrp",
  "5476": "ĠḥnꜥĠnꜣyĠ=fĠrmṯ.w",
  "5477": "ĠꜥšĠ=w",
  "5478": "-tš",
  "5479": "ĠmtwĠ=fĠḫprĠẖnĠnꜣ",
  "5480": "šnĠn",
  "5481": "yĠnĠ=f",
  "5482": "-ḏmꜥ",
  "5483": "Ġḥr-wḏꜣĠsꜣĠpꜣy=f-ṯꜣw-ꜥ.wy-bꜣst.t",
  "5484": "Ġpꜣ-my",
  "5485": "Ġ=fĠrpy",
  "5486": "ĠꞽrĠnĠ=f",
  "5487": "Ġꞽr-sh̭y",
  "5488": "Ġnty-ꞽ.ꞽr",
  "5489": "ys",
  "5490": "Ġys",
  "5491": "ĠtꜣĠnb.t",
  "5492": "ĠtꜣyĠ=fĠwp.t",
  "5493": "Ġn.ꞽmĠ=fĠr",
  "5494": "Ġꞽ.ꞽrĠ=kĠdy.tĠꞽrĠ=f",
  "5495": "Ġꜥlw",
  "5496": ".wĠ(n)",
  "5497": "Ġmyṱ",
  "5498": "Ġḥ(ꜥ)Ġ=y",
  "5499": "ĠpꜣyĠ=(y)ĠrnĠnĠmtr",
  "5500": "ĠꞽrmĠpꜣĠsp",
  "5501": "ĠpꜣĠntyĠdy.t",
  "5502": "Ġsmš",
  "5503": "ĠḫꜣꜥĠ=f",
  "5504": "ĠḫrĠḫpr",
  "5505": "ꜣy-ḥs",
  "5506": "ĠꞽrĠwš",
  "5507": "Ġn.ꞽmĠ=fĠḏd",
  "5508": "lly",
  "5509": "ĠꜥnḫĠpꜣ-rꜥ",
  "5510": "-ꞽwĠ=f",
  "5511": "ĠẖnĠ=w",
  "5512": "Ġhne",
  "5513": "Ġbꜣk.t",
  "5514": "ĠnꜣĠmd.t.w",
  "5515": "ĠṯꜣyĠnĠ=t",
  "5516": "Ġdwꜣ.tĠt",
  "5517": "Ġbyn",
  "5518": "ĠpꜣyĠ(=y)Ġꞽt.ṱ",
  "5519": "-ꜥꜣ-el",
  "5520": "Ġrmn.DU",
  "5521": "Ġmr.yt",
  "5522": "ĠꞽbĠ=kĠr",
  "5523": "-sṯꜣ",
  "5524": ".nĠ=fĠn",
  "5525": "Ġmrr.t",
  "5526": ".tꞽt",
  "5527": "Ġtꜣš",
  "5528": "ĠꜥĠn(.ꞽ)",
  "5529": "Ġꞽḫm.w-sk",
  "5530": "Ġwršu̯",
  "5531": "Ġḫ(w)",
  "5532": "hpĠ=fĠnhpĠwnꞽsĠpn",
  "5533": "ĠhꜣĠ(w)sr(.w)Ġppy",
  "5534": "Ġꞽṯi̯Ġ=fĠr",
  "5535": "Ġprꞽ",
  "5536": "Ġꞽꜣb.t",
  "5537": "ĠnĠ=kĠrḏwĠpri̯ĠꞽmĠ=kĠnĠwrḏĠꞽbĠ=k",
  "5538": "Ġnb-ꜣbḏw",
  "5539": "-ꞽm.ꞽ",
  "5540": "-rḫ.yt",
  "5541": "Ġtp(.ꞽ)-ḏw=f",
  "5542": "Ġwꜥb-nswtĠḥm-nṯr-ḫwi̯=f-wꞽ",
  "5543": "-f",
  "5544": "Ġḥr.ꞽ-ꞽb",
  "5545": ".DUĠ=fꞽĠm",
  "5546": "ĠnbĠḥr",
  "5547": "ĠmĠꜣḫ",
  "5548": "Ġpsḏ(.t)",
  "5549": "ĠpwĠp(w)-nn",
  "5550": "Ġ(ꞽ)m(.ꞽ)-rʾ-mḏ",
  "5551": "Ġꞽꜣ.w",
  "5552": "Ġ=fĠnḏ",
  "5553": "Ġḏ(d)-mdwĠn",
  "5554": "ꞽ.t(ꞽ)",
  "5555": "nt",
  "5556": "Ġ=kĠꞽmĠ=f",
  "5557": "ĠꜥnḫĠḥr",
  "5558": "Ġm-ḫnt",
  "5559": "ĠwnmĠ=f",
  "5560": "ĠmĠnʾ.t",
  "5561": "ĠꜥnḫĠḏ.t",
  "5562": "ĠḫꜣĠnĠkꜣ(.ꞽ)-m-ꜥnḫ",
  "5563": "Ġmr(.y)",
  "5564": "-mḥ.w",
  "5565": "Ġwꜣw",
  "5566": "ĠꞽtĠ=ꞽ",
  "5567": "Ġꞽni̯.nĠ=f",
  "5568": "-ḥꜣ=f",
  "5569": "Ġmnṯ.w",
  "5570": "Ġḥtp-ḏi̯ĠnswtĠḥtp-ḏi̯Ġꞽnp.wĠtp.ꞽ-ḏw=fĠꞽm.ꞽ-wtĠnb-tꜣ-ḏsr",
  "5571": "Ġḫꜣs.t.PL",
  "5572": "Ġḏd.ꞽnĠnm.tꞽ-nḫtĠpn",
  "5573": "(ꞽ",
  "5574": "bb",
  "5575": "Ġs.tĠ=k",
  "5576": "Ġsḥtp.w",
  "5577": "ĠzꜣĠ=fĠsms.wĠmr.y",
  "5578": "ĠmꜣĠ=k",
  "5579": "ĠḫrĠ=kĠmĠrnĠ=kĠn(.ꞽ)",
  "5580": "Ġꜣwi̯",
  "5581": "Ġrd.DUĠ=k",
  "5582": "ĠrĠ=ꞽ",
  "5583": "Ġnb-kꜣ",
  "5584": "Ġsn-nb.tꞽ",
  "5585": "Ġwr-kꜣ",
  "5586": "-mrw.t",
  "5587": "Ġzꜣ.tĠ=s",
  "5588": "Ġbꞽ.t",
  "5589": "Ġḫmt",
  "5590": "ĠzꜣĠ=ṯ",
  "5591": "Ġꞽꞽ-mry",
  "5592": "ĠrꜥwĠn",
  "5593": "Ġḏwi̯",
  "5594": "twt",
  "5595": "Ġꜥfn.t",
  "5596": "Ġmꜣ.t",
  "5597": "Ġꞽ(w)Ġ=s",
  "5598": "Ġšmꜥ(.w)",
  "5599": "Ġ=snĠꞽsṯ",
  "5600": "Ġnfr-ꞽ",
  "5601": "ĠẖnmĠ=sĠṯw",
  "5602": "Ġn(ꞽ).tĠn",
  "5603": "Ġḥ(n)q",
  "5604": "Ġwꜣḏ(.t)",
  "5605": "Ġqꜣꞽ",
  "5606": "ĠrnĠ=sĠn(.ꞽ)",
  "5607": "Ġpr.t-ḫrwĠnĠ=fĠm",
  "5608": "Ġmr.t-nꞽ.t",
  "5609": "Ġ=fĠrḏi̯",
  "5610": "Ġꞽ:ḏd.t",
  "5611": "ꜥw-nb",
  "5612": "y.t.PL",
  "5613": "-wꞽ",
  "5614": "Ġsḥḏ-(ꞽ)r(.w-ꞽ)ḫ(.t)",
  "5615": "Ġnzw-bꞽ.tꞽĠqꜣ-ꜥ-nb.tꞽ",
  "5616": "Ġꜥm.n",
  "5617": "Ġsḫm.PL",
  "5618": "Ġꞽdr",
  "5619": "r-ḫꜣs.t",
  "5620": "s.wt",
  "5621": "Ġḏꜣ(.t)",
  "5622": "Ġ(w)sr(.w)ĠppyĠnfr-kꜣ-rꜥw",
  "5623": "Ġḥꜣ.ttĠn",
  "5624": "Ġ(ꞽ)m(.ꞽ)-rʾ-mn",
  "5625": "Ġꜥꜣ.DUĠp.t",
  "5626": "Ġnš",
  "5627": "Ġwt.ḫrĠ=kĠswĠḥrĠꞽm",
  "5628": "r.w.PL",
  "5629": "hd",
  "5630": "qd-mꜣꜥ.t",
  "5631": "Ġsḫ.t-ḥtp",
  "5632": "-mn.t",
  "5633": "Ġ(ꞽ)n",
  "5634": "-gs-pr",
  "5635": "Ġḏḏ.t",
  "5636": "Ġḥm(.t)-nṯr-ḥw.t-ḥr.wĠḥm(.t)-nṯr-nꞽ.t",
  "5637": "nr",
  "5638": "ṯṯ",
  "5639": "ĠnbĠsnḏ",
  "5640": "Ġmri̯Ġ=f",
  "5641": "ĠḏdĠ=k",
  "5642": "Ġtʾ-wr",
  "5643": "Ġḫpi̯Ġ=fĠḥr",
  "5644": "-ḥr.ꞽ",
  "5645": "Ġsnk",
  "5646": "Ġšmꜣ",
  "5647": "-wrĠrkḥ",
  "5648": "Ġsmr-wꜥ.tꞽĠḫrp-ns.tꞽ",
  "5649": "-m-pr",
  "5650": "Ġptꞽ",
  "5651": "ĠwsꞽrĠḫnt.ꞽ",
  "5652": "Ġwꜣi̯",
  "5653": "Ġmnḥ",
  "5654": "Ġ=kĠrĠ=k",
  "5655": "Ġꞽnr",
  "5656": "ĠwsꞽrĠḫnt(.ꞽ)-ꞽmn.tꞽw",
  "5657": "ĠḥtmĠṯwĠm",
  "5658": "Ġꞽ:mz",
  "5659": ".nĠs(ꞽ)",
  "5660": "Ġḥqꜣ.t",
  "5661": "Ġꞽ:(n)ḏĠḥrĠ=k",
  "5662": "Ġsmr-wꜥ.tꞽĠẖr(.ꞽ)-ḥ(ꜣ)b(.t)Ġ(ꞽ)m(.ꞽ)-r(ʾ)-(ꞽ)ꜥw",
  "5663": "Ġḥr(.w)-ḫwi̯=f",
  "5664": "(.wt)",
  "5665": "Ġwšb.t",
  "5666": "Ġnḫḫ",
  "5667": "ĠtpĠn(.ꞽ)",
  "5668": "ĠnṯrĠn",
  "5669": "b.tĠn",
  "5670": "Ġwꜣ.tĠn",
  "5671": "ĠmĠs.t",
  "5672": "Ġshr",
  "5673": "Ġꞽzꞽ",
  "5674": "Ġꞽz-ḏ",
  "5675": "f(ꜣ)",
  "5676": "wrr",
  "5677": "ĠkwĠn",
  "5678": "ĠḥrĠm",
  "5679": "-nh.t",
  "5680": "Ġꞽr-m-ḫt",
  "5681": "-n.tt",
  "5682": "ĠsnĠ=k",
  "5683": "s.wĠm",
  "5684": "Ġtḫt",
  "5685": "Ġtḫtḫ",
  "5686": "Ġḥm-ꜥꜣ",
  "5687": "Ġḫtm.tꞽ",
  "5688": "Ġḥzꞽ",
  "5689": ".tĠnfr",
  "5690": "Ġpr-wrĠꜣbw",
  "5691": "ĠhꜣĠn(ꞽ).tĠpn",
  "5692": "Ġzmꞽ",
  "5693": "Ġzmꞽn",
  "5694": "(-m",
  "5695": "Ġsḥḏ-(ꞽ)r(.w-ꞽ)ḫ.t",
  "5696": "Ġsḥḏ-(ꞽ)r(.w-ꞽ)ḫ.t-pr-ḥḏ",
  "5697": "Ġmḏḥ.w-mḏḥ.w(w)-nzw",
  "5698": "Ġwstn",
  "5699": "Ġḥtp-nꞽ.t",
  "5700": "=w(ꞽ)",
  "5701": "Ġdi̯.nĠ=f",
  "5702": "Ġnb-ꜥnḫ",
  "5703": "Ġꜥꜣ.w",
  "5704": "-ḥrĠpꜣ",
  "5705": "Ġꞽw.t",
  "5706": "ĠpwĠn.t",
  "5707": "Ġbḏ",
  "5708": "-wꞽꜣ",
  "5709": "ĠwnĠꞽr.t",
  "5710": "Ġẖr-ḥꜣ.t",
  "5711": "Ġḏd.ꞽnĠḏdꞽ",
  "5712": "Ġṯtꞽ",
  "5713": "Ġmw.tĠ=fĠn",
  "5714": "y.tĠr",
  "5715": "s.t(ꞽ)",
  "5716": "ĠrʾĠpn",
  "5717": ".w.PLĠḥr",
  "5718": "dp",
  "5719": "ĠrĠḏi̯.t",
  "5720": "Ġꞽ:sdb",
  "5721": "ĠwnmĠ=k",
  "5722": "Ġsḥḏ-ḥm(.w)-nṯr",
  "5723": "Ġḥr.wĠḫꜥ",
  "5724": "Ġḥr.wĠḫꜥ-bꜣ",
  "5725": "Ġ=fĠmḥ",
  "5726": "Ġḫrp-šnḏ.t",
  "5727": "Ġḥbs.w",
  "5728": "Ġnb.tĠm",
  "5729": "ḥ)",
  "5730": "Ġmri̯.n",
  "5731": "Ġšrr",
  "5732": "Ġꞽpy",
  "5733": "Ġmsḏ",
  "5734": "t.tĠn",
  "5735": "-ky",
  "5736": "Ġmnḫ.tĠn",
  "5737": "Ġqꜣb",
  "5738": "ĠwḏꜣĠsnb",
  "5739": "Ġ4",
  "5740": "ḏ.tĠn",
  "5741": "ĠtʾĠ=k",
  "5742": "ĠꞽwĠ=fĠꜥnḫ",
  "5743": "ĠḥrĠḥr",
  "5744": "-ꞽꜣb",
  "5745": "ĠḥrĠr",
  "5746": "Ġqnꞽ",
  "5747": "-ẖ",
  "5748": "Ġ(m)",
  "5749": "Ġꞽq",
  "5750": "Ġny",
  "5751": "sḏ",
  "5752": "ĠḥrĠꞽni̯",
  "5753": "-n-pr",
  "5754": "ĠmwĠḥr",
  "5755": "pĠꜥꜣ",
  "5756": "Ġnṯr-ꜥꜣĠnb-p.t",
  "5757": "Ġp(ꜣ)",
  "5758": "ĠmḥĠm",
  "5759": ".wĠḏd",
  "5760": "Ġ=fĠmd.t",
  "5761": "Ġwnf",
  "5762": "Ġm-ḥꜣ.t",
  "5763": "Ġmd.tĠnb.t",
  "5764": "Ġwꜥb(.w)",
  "5765": "Ġwn.ꞽnĠstẖ",
  "5766": "~y",
  "5767": "~wꜣ~",
  "5768": "ĠnꜣĠn.tꞽ",
  "5769": "Ġky-ḏd",
  "5770": "-pꜣ-ẖrd",
  "5771": "ĠrĠ⸗ꞽ",
  "5772": "Ġꞽni̯.twĠnĠ⸗kĠzẖꜣ.PLĠpnĠnĠḏd",
  "5773": "~pꜣ",
  "5774": "ĠꞽwĠ⸗w",
  "5775": "Ġkꜣm",
  "5776": "ĠḏsĠ⸗k",
  "5777": "ĠnnĠrḫ",
  "5778": "ĠmnĠmsi̯.nĠmn.t",
  "5779": "Ġḏrꞽ",
  "5780": "Ġssm.t",
  "5781": "Ġft",
  "5782": "ĠꞽwĠ⸗kĠr",
  "5783": "ĠrĠ⸗f",
  "5784": "ĠꜥqĠn",
  "5785": "-n-rꜥ",
  "5786": "-pr-ꞽmn",
  "5787": "-m-wꜣs.t",
  "5788": "ĠnbĠ⸗f",
  "5789": "Ġḥr.ꞽ-zꜣ.w.PL-zẖꜣ.wĠꞽmn-m",
  "5790": "Ġḥr.ꞽ-zꜣ.w.PL-zẖꜣ.wĠꞽmn-m-ꞽn",
  "5791": "Ġḥr.ꞽ-zꜣ.w.PL-zẖꜣ.wĠꞽmn-m-ꞽn.tĠn",
  "5792": "Ġḥr.ꞽ-zꜣ.w.PL-zẖꜣ.wĠꞽmn-m-ꞽn.tĠnĠpr-ḥḏĠn",
  "5793": "Ġḥr.ꞽ-zꜣ.w.PL-zẖꜣ.wĠꞽmn-m-ꞽn.tĠnĠpr-ḥḏĠnĠpr-ꜥꜣĠꜥnḫ-wḏꜣ-snb",
  "5794": "ĠhꜣbĠpwĠrĠrḏi̯.tĠrḫĠpꜣyĠ⸗ꞽĠnb",
  "5795": "ḥꜣ.t",
  "5796": "ĠsmnĠn",
  "5797": "Ġwgꜣ",
  "5798": "Ġ⸗wĠm",
  "5799": "Ġšrꞽw",
  "5800": "Ġqnꞽw",
  "5801": "Ġꞽ:ḏd.ṱ",
  "5802": "Ġwhꜣ",
  "5803": "Ġpꜣ-rꜥ-ḥr.w-ꜣḫ.tꞽ.DU",
  "5804": "Ġm-bꜣḥĠ⸗f",
  "5805": "ĠtꜣĠrmṯ",
  "5806": "Ġqdꞽ",
  "5807": "-n-sẖ",
  "5808": "ĠrĠḫpr",
  "5809": "ĠꞽwĠrmṯ",
  "5810": "ĠmwtĠn",
  "5811": "-n-nsw",
  "5812": "Ġḥtp-nsw",
  "5813": "-(n-)ꞽmn",
  "5814": "sntrw",
  "5815": "ĠnṯrĠnbĠnty",
  "5816": "ĠtꜣyĠ=kĠḥm.t",
  "5817": "Ġmd.tĠnbĠnty",
  "5818": "Ġpꜣ-dy-ḥr-pꜣ",
  "5819": "Ġ=(t)",
  "5820": "ĠwsꞽrĠḫnṱ-ꞽmnṱĠnṯr-ꜥꜣĠnb-ꞽbt",
  "5821": "Ġpa-mn",
  "5822": "-nꜣy=w-ḫmnw",
  "5823": "Ġꞽw=f-ꜥw",
  "5824": "Ġn-ḏr.ṱĠ=k",
  "5825": "Ġ(r.)",
  "5826": "Ġꜥ.wyĠnb",
  "5827": "ĠpꜣyĠ=nĠḥry",
  "5828": "r-ḥb",
  "5829": "Ġr.rĠ=kĠr-ḏbꜣ",
  "5830": "Ġẖb",
  "5831": "ẖrr",
  "5832": "ĠtꜣĠry.t",
  "5833": "ẖy",
  "5834": "Ġpꜣ-dy-ḥr-pꜣ-ẖrd",
  "5835": "Ġmw.tĠ=sĠta",
  "5836": "ĠntyĠqdĠḥbs",
  "5837": "ĠmtwĠ=yĠḥnꜥĠnꜣ",
  "5838": "ĠmtwĠ=yĠḥnꜥĠnꜣĠnty-ꞽwĠ=y",
  "5839": "Ġsḥn-nfr",
  "5840": "Ġꞽbd-3",
  "5841": "Ġ(sꜣ)Ġḥr",
  "5842": "Ġpꜣy=f-ṯꜣw-ꜥ.wy-ḫnsw",
  "5843": "ĠwḏꜣĠr",
  "5844": "Ġ(pꜣ)Ġnty",
  "5845": "Ġ=kĠnꜣy-ḥr",
  "5846": "ĠꞽhyĠnĠ=kĠwsꞽrĠnĠḥrĠsꜣĠpꜣ-dy-mn",
  "5847": "Ġnꜣ.w-nḫt.ṱ=f",
  "5848": "Ġhꜥ",
  "5849": "ĠnĠnꜣy",
  "5850": "e.tĠpr-ꜥꜣ",
  "5851": "ĠꞽrĠ=fĠwꜥb-n",
  "5852": "Ġtꜣ.w",
  "5853": "-ꞽt.ṱ",
  "5854": "-ꞽt.ṱ=f",
  "5855": "ĠwꜥĠmꜣꜥ",
  "5856": "ĠrĠpꜣĠnṯr",
  "5857": "Ġḥr-sꜣ-ꜣs.tĠsꜣ",
  "5858": "Ġꞽr-sḫ",
  "5859": "Ġ=kĠrpy",
  "5860": "-nty-nḥm",
  "5861": "ĠnꜣĠnṯr.w-mr-ꞽt.ṱ=w",
  "5862": "-pꜣ-rꜥ",
  "5863": "ĠsꜣĠḥr-m-ḥb",
  "5864": "ĠnĠtꜣĠp.t",
  "5865": "-nꜣ-ꜥn",
  "5866": "Ġ(w",
  "5867": "Ġ(wy)",
  "5868": "ĠmyĠꞽrĠ=wĠnĠ=y",
  "5869": "Ġwḥmꜣ",
  "5870": "ĠtꜣĠsbꜥ.tĠmḥ",
  "5871": "Ġšft",
  "5872": "ĠꞽrĠr-ẖ",
  "5873": "Ġdy.tĠꞽrĠ=y",
  "5874": "ĠsꜣĠṯꜣy-nfr",
  "5875": "ĠpꜣĠmšꜥĠnĠkmy",
  "5876": "yĠpꜣĠwy",
  "5877": "Ġnꜣ-nfr-ꞽ",
  "5878": "ĠpꜣĠnty-ꞽwĠ=w",
  "5879": "ĠsmyĠr.rĠ=f",
  "5880": "gꜥ",
  "5881": "ĠbyĠnĠwsꞽr",
  "5882": "ĠṯꜣyĠ=fĠs",
  "5883": "ĠpꜣĠnṯrĠpꜣĠntyĠdy.t",
  "5884": "ĠsḏeĠwbe",
  "5885": "Ġ=yĠnĠpꜣ-hrw",
  "5886": "ĠṯꜣyĠnkt",
  "5887": "ĠꞽwĠnĠ=y",
  "5888": "-sḥnĠn",
  "5889": "Ġwtb",
  "5890": "ĠḥnꜥĠpꜣ",
  "5891": "Ġmw.tĠ=(f)Ġta",
  "5892": "yns",
  "5893": "ĠmnĠdyĠm-bꜣḥ",
  "5894": "Ġpꜣ-dy-bꜣst.t",
  "5895": "ĠsẖĠ=w",
  "5896": "byk",
  "5897": "Ġꜣs.t-wr.t",
  "5898": "Ġnty-ꞽwĠ=wĠḏdĠnĠ=f",
  "5899": "ĠhbĠ=wĠn",
  "5900": "Ġpa-ḏmꜣꜥ",
  "5901": "Ġdy.tĠnĠ=f",
  "5902": "ĠḏdĠnĠ=fĠpꜣ-dy-ꜣs.t",
  "5903": "ĠrĠpꜣ-tꜣ",
  "5904": "ĠpꜣĠmwt",
  "5905": "ĠmyĠḥnĠ=wĠsĠrĠdy.t",
  "5906": "-(n-)qnqn",
  "5907": "Ġꜥnꜥn",
  "5908": "ĠšmĠ=wĠr",
  "5909": "Ġs.t-n-ḥ.t-nṯr",
  "5910": "ĠpꜣĠrp",
  "5911": ".wĠn.ꞽmĠ=f",
  "5912": "ĠwꜣḥĠ=wĠnĠ=t",
  "5913": "ĠꞽyĠrĠrsy",
  "5914": "Ġ=fĠn.ꞽm",
  "5915": "Ġꜥw-n-ḥꜣty.ṱ",
  "5916": "ĠpꜣĠkwrĠꜥnḫ-wḏꜣ-snb",
  "5917": "Ġ=fĠꜥn",
  "5918": "Ġm-bꜣḥĠpꜣyĠ=fĠḥry",
  "5919": "Ġꞽkš.t",
  "5920": "ybš",
  "5921": "Ġ(n)Ġtꜣy",
  "5922": "-rpy.t",
  "5923": "Ġww",
  "5924": "-sw=f",
  "5925": "ĠpꜣĠḥm-nṯr-n",
  "5926": "Ġqnb(.t)",
  "5927": "Ġsṯny",
  "5928": "ĠpꜣĠpr-ꜥꜣ",
  "5929": "Ġpr-mnṱ-nb",
  "5930": "Ġmdy.w",
  "5931": "ĠpꜣĠh̭ꜥ(m)",
  "5932": "Ġtym",
  "5933": "he",
  "5934": "Ġsyt",
  "5935": "-ḫꜣꜥ",
  "5936": "Ġ=nĠn",
  "5937": "Ġbn-ꞽw-mtw",
  "5938": "Ġḥ.t-ḥrĠnb.tĠꞽwn.t",
  "5939": "Ġpꜣ-dy-wp(y)",
  "5940": "Ġḥny.t",
  "5941": ".nw.t",
  "5942": "Ġ=wĠnw",
  "5943": "ĠḏdĠ=sĠnĠ=f",
  "5944": "ĠꞽrmĠpr-ꜥꜣ",
  "5945": "y.t-m-ḥꜣ.t",
  "5946": "Ġ(sꜣ)Ġpꜣ-dy=w",
  "5947": "-nꜣ-nṯr.w",
  "5948": "Ġꞽpd",
  "5949": "ĠmtwĠ=wĠdy.tĠnĠ=f",
  "5950": "Ġẖe.ṱĠ=f",
  "5951": "Ġ(sꜣ)Ġpꜣ-šr-",
  "5952": "ĠtwĠ=wĠnĠ=k",
  "5953": "ĠdbḥĠn.ꞽmĠ=s",
  "5954": "ĠwdĠ=w",
  "5955": "ĠpꜣĠmr-šnĠn",
  "5956": "Ġpr-s",
  "5957": "ĠꞽhyĠnĠ=kĠwsꞽrĠḫnṱ-ꞽmnṱ",
  "5958": "Ġꞽn-nꜣ.wĠpꜣ-rꜥ",
  "5959": "Ġꞽn-nꜣ.wĠpꜣ-rꜥĠh̭ꜥr",
  "5960": "Ġꞽn-nꜣ.wĠpꜣ-rꜥĠh̭ꜥrĠr",
  "5961": "Ġꞽn-nꜣ.wĠpꜣ-rꜥĠh̭ꜥrĠrĠtš",
  "5962": "ĠpꜣyĠ=sĠnb",
  "5963": "ĠsꜣĠpꜣ-šr-ꞽmn",
  "5964": "Ġmnḫ-n-ḥp-wsꞽr",
  "5965": "ĠꜥḥꜥĠ=w",
  "5966": "ĠꞽnĠwn",
  "5967": "e(.t)Ġn",
  "5968": "Ġbty",
  "5969": "Ġḫn-mn",
  "5970": "ĠꞽrmĠnꜣy",
  "5971": "ĠꞽwĠ=nĠ(r)",
  "5972": "ĠꞽrmĠnꜣyĠ=fĠs.t.w",
  "5973": "Ġḥr-mꜣꜥ",
  "5974": "Ġḥr-mꜣꜥ-ḫrw",
  "5975": "Ġsyḥ",
  "5976": "ĠšmĠ=tĠr",
  "5977": "Ġḥ.t-sre.w",
  "5978": "-ꞽ.ꞽr-dy.t",
  "5979": "-ꞽ.ꞽr-dy.t-s",
  "5980": "Ġ=tnĠr",
  "5981": "Ġꜣbyn",
  "5982": "Ġšrl",
  "5983": "ĠtꜣyĠ=(y)Ġmw.t",
  "5984": "ĠꞽwĠ=fĠwšbĠn-ḏr.t",
  "5985": "Ġwrše",
  "5986": "Ġꞽr.t=w-r",
  "5987": "ĠrĠpꜣyĠ=sĠbyĠrĠšms",
  "5988": "ĠꞽnyĠwꜥ",
  "5989": "Ġ(r-)ẖ",
  "5990": "Ġr-ꞽwĠ=w",
  "5991": "-wty",
  "5992": "ĠsẖĠḏd",
  "5993": "ĠẖnĠbtw",
  "5994": "ĠpꜣĠwyṱ",
  "5995": "ĠꞽnĠꜥn",
  "5996": "ĠmnĠ=k",
  "5997": "n-nfr",
  "5998": "Ġpa-rt",
  "5999": "ĠꞽĠꞽrĠ=fĠpꜣĠꜥḥꜥ",
  "6000": "lws",
  "6001": "Ġẖrḥ",
  "6002": "Ġḥꜣty.ṱĠ=kĠr",
  "6003": "ĠntyĠ(n)",
  "6004": "trsĠꜥnḫ-wḏꜣ-snbĠꞽrmĠnꜣĠnṯr.w",
  "6005": "ĠmꜣyĠn",
  "6006": "ĠtꜣĠꜥr",
  "6007": "ĠꞽnĠ=wĠnĠ=y",
  "6008": "ĠꞽwĠbw-ꞽr-rḫ",
  "6009": "Ġꜥ.wy.wĠn",
  "6010": "-rꜥ-tw",
  "6011": "Ġḥr-mꜣy-ḥs",
  "6012": "-(n-)ḥtp",
  "6013": "ĠꞽrmĠwsꞽr",
  "6014": "Ġꜣsṱ",
  "6015": "ĠsẖĠꞽt-nṯr",
  "6016": "Ġꞽ-ḥr",
  "6017": "Ġb-ꜥꜣ-el",
  "6018": "ĠḥꜣtyĠ=k",
  "6019": "Ġkꜣ(.PL)",
  "6020": "Ġkꜣ(.PL)Ġꜣpd",
  "6021": "Ġꞽmn-m-ḥꜣ.t",
  "6022": "ĠmĠz(my).tĠꞽmn.t(ꞽ).t",
  "6023": "Ġꜣṯ",
  "6024": "Ġsṯi̯",
  "6025": "Ġrʾ-pw",
  "6026": "tĠḥr",
  "6027": "ĠnĠ=kĠn",
  "6028": "Ġrdi̯.n",
  "6029": "b.w",
  "6030": "Ġḏḥw",
  "6031": "Ġꞽpꞽ",
  "6032": "-ꜥ.t",
  "6033": "Ġ=kĠrĠtꜣ",
  "6034": "Ġ(ꞽ)m(.ꞽ)-s.t",
  "6035": "(.t).DU",
  "6036": "Ġsꞽn",
  "6037": "Ġ2.nw",
  "6038": "Ġsḥḏ-ḥm.w",
  "6039": "Ġ(ꞽ)m(.ꞽ)-rʾ-z",
  "6040": "ĠnĠppyĠnfr-kꜣ-rꜥw",
  "6041": "ĠppyĠnfr-kꜣ-rꜥwĠꞽr",
  "6042": "Ġꞽtḥ.t.nĠ=f",
  "6043": "Ġẖnm(.w)-ḥtp",
  "6044": "-wsr",
  "6045": "Ġnwr",
  "6046": "ĠrĠ=fĠm",
  "6047": "ĠwnḫĠm",
  "6048": "Ġꞽwd",
  "6049": "ĠnĠ=kĠrḏwĠpri̯ĠꞽmĠ=kĠnĠwrḏĠꞽbĠ=kĠẖrĠ=s",
  "6050": "Ġꞽṯw",
  "6051": "Ġnbꞽ",
  "6052": "i̯.nĠ=fĠnĠ=kĠs(ꞽ)",
  "6053": "-fnḏ",
  "6054": "d.t(ꞽ)",
  "6055": "ĠḥrĠꞽ",
  "6056": "Ġṯḥn",
  "6057": "Ġꞽni̯.tĠn",
  "6058": "Ġꜣḫ.n",
  "6059": "=f-ḥr",
  "6060": "Ġtꞽw",
  "6061": "Ġrḫ.kwꞽ",
  "6062": "Ġwꜥḥ",
  "6063": "Ġ=snĠnĠ=k",
  "6064": "ĠḥrĠwꜥ",
  "6065": "Ġꞽwi̯.n",
  "6066": "Ġꞽ:ḥ",
  "6067": "-wr(.t)",
  "6068": "Ġꞽdn",
  "6069": "ꜥr.t",
  "6070": "ꜥ.tĠ=f",
  "6071": "ĠmĠḫ",
  "6072": "Ġwsꞽr-ḫ",
  "6073": "ḫꜣ.t",
  "6074": "Ġḥr.ꞽ-wḏ",
  "6075": "Ġḥr.ꞽ-wḏb",
  "6076": "ĠḥrĠns.t",
  "6077": "-ḫꜣ",
  "6078": "ĠnĠpr",
  "6079": "Ġmsi̯.t.n",
  "6080": ".i̯",
  "6081": "Ġnfr-ḥtp",
  "6082": "dĠ=f",
  "6083": "ĠzꞽĠzꞽ",
  "6084": "Ġḥr.ꞽ-sštꜣ-n-wḏꜥ",
  "6085": "Ġḥr.ꞽ-sštꜣ-n-wḏꜥ-mdw",
  "6086": "Ġḥtp(.t)",
  "6087": "Ġwꜥb.wĠn",
  "6088": "Ġ=fĠmr.t-ꞽtꞽ=s",
  "6089": "Ġ(ꞽ)m(.ꞽ)-rʾ-nʾ.t",
  "6090": "-ḫwi̯=f-w(ꞽ)",
  "6091": "Ġḫḫ",
  "6092": "Ġꞽnq",
  "6093": "Ġẖr(.ꞽ)-ꜥ",
  "6094": "Ġ=fĠsꞽ",
  "6095": "Ġḥm-nṯr-mꜣꜥ.t",
  "6096": "ĠwnꞽsĠꞽm",
  "6097": "Ġpḥ.tꞽ",
  "6098": "Ġḏꜣi̯Ġ=f",
  "6099": "Ġzẖꜣ.w-ꜥ-(n-)nswt",
  "6100": "Ġzꜣu̯Ġṯw",
  "6101": "Ġšꞽ",
  "6102": "Ġrdi̯.yĠnĠ=f",
  "6103": "Ġ(ꞽ)m(.ꞽ)-rʾ-kꜣ.t",
  "6104": "Ġ(ꞽ)r(.ꞽ-ꞽ)ḫ(.t)-nswtĠwꜥb-nswt",
  "6105": "Ġḥtp-ḏi̯-nzw",
  "6106": "Ġꞽmꜣḫ.(w)t",
  "6107": "Ġ=fĠꞽs",
  "6108": "ĠnĠs",
  "6109": "ḥ(.w)",
  "6110": "Ġtm.t",
  "6111": "Ġdnꞽ",
  "6112": "Ġšb.t",
  "6113": "ĠsprĠ=fĠr",
  "6114": "(.ꞽ).w",
  "6115": "-n=s",
  "6116": "Ġḥr(.ꞽ).w",
  "6117": "-ḫnt.w-š",
  "6118": "(ꞽ)Ġsw",
  "6119": "r-ḥꜣ",
  "6120": "Ġgw",
  "6121": "Ġšsꜣ.wĠwbn.wĠm",
  "6122": "ĠzꜣĠ=fĠnĠẖ.tĠ=f",
  "6123": "Ġstp.t",
  "6124": "-ḏbꜥ",
  "6125": "Ġn(.ꞽ)-mꜣꜥ.t",
  "6126": "Ġḥtp-ḏꞽĠnswtĠḥtp-ḏꞽĠꞽnp.wĠtp.ꞽ-ḏw=f",
  "6127": "Ġš(m)",
  "6128": ".w.PLĠ=k",
  "6129": "Ġꜥnḫ.tꞽ",
  "6130": "ĠnṯrĠꞽm",
  "6131": "Ġgmi̯.nĠ=ꞽ",
  "6132": "ĠstĠm",
  "6133": "Ġꞽt(ꞽ)Ġ=fĠꞽm(.ꞽ)Ġ=k",
  "6134": "Ġsḥḏ-(ꞽ)r(.w-ꞽ)ḫ(.t)-pr-ḥḏ",
  "6135": "Ġḫfꜥ",
  "6136": "Ġwnn.t",
  "6137": "Ġꞽm(.ꞽ).w-ḫt",
  "6138": "Ġtp(.ꞽ).w",
  "6139": "Ġ=kĠmnḫ",
  "6140": "Ġꞽri̯.nĠ=ꞽ",
  "6141": "Ġꞽtr.t.DU",
  "6142": "Ġꜥḏ-mrĠsꜣb",
  "6143": "Ġ=ꞽĠḥnꜥ",
  "6144": "Ġwpi̯.n",
  "6145": "(.ꞽ.w)",
  "6146": "Ġ(ꞽ)m(.ꞽ)-rʾ-mnn.w",
  "6147": "Ġ(ꞽ)m(.ꞽ)-rʾ-wpw.(w)t",
  "6148": "Ġhꜣꜣ",
  "6149": "Ġwr.t-ḥkꜣ.w",
  "6150": "Ġ=sĠꞽrĠ=k",
  "6151": "ĠpšnĠm",
  "6152": "ĠsdĠpf",
  "6153": "Ġḥm-nṯr-ꞽnp.w",
  "6154": "Ġ=kĠꞽmĠ=fĠm",
  "6155": "-4",
  "6156": "Ġꞽm.ꞽ-rʾ-kꜣ.t-nb.t-n.t-nswt",
  "6157": "Ġꞽm.ꞽ-rʾ-gs-pr",
  "6158": "Ġb(ꞽ)",
  "6159": "Ġ=snĠḫr",
  "6160": "ĠꞽḥĠḫꜣĠꜣpdĠḫꜣ",
  "6161": "pḥ",
  "6162": "Ġzẖꜣ.w-ꜥ-nswt",
  "6163": "Ġpr.t-mnw",
  "6164": "Ġn.ꞽ-sw-qd",
  "6165": "-m-pr.wꞽ",
  "6166": "Ġ=kĠnĠ=ꞽ",
  "6167": "Ġꞽ:ꜣḫ",
  "6168": "Ġ=snĠnĠ=f",
  "6169": "-kꜣ.w=s",
  "6170": "ĠḥtmĠṯwĠmĠḥnq",
  "6171": "ĠꞽmĠ=fĠm",
  "6172": "Ġḥm-nṯr-ḥr",
  "6173": "ĠꜥnḫĠḏd",
  "6174": "Ġḏ.tĠ=k",
  "6175": "Ġsšꜣ.t",
  "6176": "Ġḥmi̯",
  "6177": "Ġtꜣ-z",
  "6178": "ĠwnĠnĠ=f",
  "6179": "i̯Ġn",
  "6180": "Ġnṯr-ꜥꜣĠnb-ꜣbḏw",
  "6181": "ĠmḥĠn",
  "6182": "Ġḥts",
  "6183": "Ġḥts-ꞽnp.w",
  "6184": "-nb=fĠmr",
  "6185": "Ġḥr.wĠn(.ꞽ)-nṯr",
  "6186": "-ꜥꜣ.tĠn",
  "6187": "(y).t",
  "6188": "Ġnẖnm",
  "6189": ".ꞽnĠ=k",
  "6190": ".wt.PL",
  "6191": "Ġ(ꞽ)ḫ.tĠnb.t",
  "6192": "ĠḥrĠ=kĠn",
  "6193": "Ġḥknw",
  "6194": "Ġꞽm.ꞽ-rʾ-s.t",
  "6195": "ĠḥrĠ=kĠꞽmĠ=s",
  "6196": ".ꞽĠn",
  "6197": "ĠꜥĠ=kĠḥr",
  "6198": "Ġwnm.ꞽ",
  "6199": "Ġnꞽ",
  "6200": "ĠḥnꜥĠšms",
  "6201": "ĠḥrĠḫ",
  "6202": "Ġḫtm.w-nṯr-wꞽꜣ-bꜣ-nṯr.wĠḫtm.w-nṯr-wꞽꜣ-dwꜣ",
  "6203": "Ġšpsꞽ",
  "6204": "Ġtꜣ.tꞽ-zꜣb-ṯꜣ.tꞽĠmn",
  "6205": "Ġtꜣ.tꞽ-zꜣb-ṯꜣ.tꞽĠmn-kꜣ(=ꞽ)",
  "6206": "Ġꞽyi̯ĠrĠ=fĠwnꞽsĠpnĠḫ",
  "6207": "Ġꞽyi̯ĠrĠ=fĠwnꞽsĠpnĠḫwrr",
  "6208": "Ġꞽyi̯ĠrĠ=fĠwnꞽsĠpnĠḫwrrĠpsḏ.t",
  "6209": "Ġꞽyi̯ĠrĠ=fĠwnꞽsĠpnĠḫwrrĠpsḏ.tĠꜣḫ(.ꞽ)Ġꞽ:ḫm",
  "6210": "Ġꞽyi̯ĠrĠ=fĠwnꞽsĠpnĠḫwrrĠpsḏ.tĠꜣḫ(.ꞽ)Ġꞽ:ḫmĠski̯",
  "6211": "Ġḥmꜣ.t",
  "6212": ".PL-nṯr",
  "6213": "Ġꞽm.ꞽ.w.PL",
  "6214": "Ġwꜣḏ.w",
  "6215": "Ġmrw",
  "6216": "Ġḏbꜥ.PLĠ=k",
  "6217": "ĠṯwtĠꞽs",
  "6218": "ĠkꜣĠpw",
  "6219": "ĠnṯrĠpn",
  "6220": "ĠꞽrĠwnn",
  "6221": "Ġḥn.w.PLĠn.w",
  "6222": "w.tĠn",
  "6223": "ĠsḫmĠm",
  "6224": "Ġšmꜥ.wĠmḥ.w",
  "6225": "Ġḫtm.tꞽ-bꞽ.tꞽ",
  "6226": "ĠꞽpĠnĠ=k",
  "6227": "Ġsꜣw",
  "6228": "Ġꜥšꜣ.t",
  "6229": "tĠm",
  "6230": "Ġꜥšm",
  "6231": "ĠmĠḏd",
  "6232": "ĠṯwtĠwrĠꞽm(.ꞽ)",
  "6233": "Ġsḫm.n",
  "6234": ".PLĠ=ꞽ",
  "6235": "Ġḫbꜣ",
  "6236": "Ġꜣs.tĠn",
  "6237": "Ġrwd",
  "6238": "ĠrĠspr",
  "6239": "Ġm-ꜥb",
  "6240": "Ġ=sꞽ",
  "6241": "Ġn.ꞽ-ꜥnḫ",
  "6242": "Ġštꜣ.w",
  "6243": "Ġwnwn",
  "6244": "Ġmꜣn",
  "6245": ".t.PLĠ=fĠm",
  "6246": "-ꞽ)ḫ",
  "6247": "Ġꞽꜣzn",
  "6248": "Ġꜥbꜥ",
  "6249": "ĠrꜥwĠꞽr",
  "6250": "-ꜥ-nswt",
  "6251": "Ġsšm-nfrĠṯtꞽ",
  "6252": "-nf",
  "6253": "ĠnĠk",
  "6254": "-mr.t",
  "6255": "ĠꞽzĠ=fĠn",
  "6256": "tẖ",
  "6257": "-ḥw.t-wr.t",
  "6258": "tꞽ.w",
  "6259": "Ġsti̯.t",
  "6260": "Ġꞽmꜣḫ.(w)",
  "6261": "Ġꜥ(ꜣ)",
  "6262": "fꜥ",
  "6263": "ĠsmĠḫrp-šnḏ.t",
  "6264": "Ġnfr-bꜣ.w-ptḥ",
  "6265": "Ġṯꜣi̯",
  "6266": "ĠbwĠnb",
  "6267": "ĠḥrĠḫnd.w",
  "6268": "tꞽĠm",
  "6269": "Ġḫm.n",
  "6270": "-ẖr-nṯr",
  "6271": "-wꜣ.t",
  "6272": "Ġꞽri̯Ġm",
  "6273": "Ġ=fĠḥrĠ=s",
  "6274": "ĠrnĠ=kĠn",
  "6275": "-wꜥb.w",
  "6276": "(w)Ġ=s",
  "6277": "ĠḥrĠsn",
  "6278": "ḏĠsꜣ",
  "6279": "Ġwṯs",
  "6280": "ꞽp",
  "6281": "ĠrĠsp",
  "6282": "Ġ=fĠrs",
  "6283": "-ḥr-m",
  "6284": "Ġ=fĠmwt",
  "6285": "Ġ1/6",
  "6286": "Ġnw.w",
  "6287": "ꞽĠꞽw",
  "6288": "Ġmd.tĠm",
  "6289": "Ġ=fĠsd",
  "6290": "Ġr-rʾ",
  "6291": "yĠnw",
  "6292": "Ġḫpr.wĠm",
  "6293": "fy",
  "6294": "-th",
  "6295": "Ġꞽmw",
  "6296": "Ġꞽmm",
  "6297": "Ġꞽḥ.w",
  "6298": "Ġꞽꜣ.wt",
  "6299": "Ġẖꜥ",
  "6300": "ĠsbkĠnb",
  "6301": "Ġrmni̯",
  "6302": "-nṯr.t",
  "6303": "ĠmĠhꜣ",
  "6304": "-pḥ",
  "6305": "ĠḥrĠsḏm",
  "6306": "Ġkꜣ(=ꞽ)-ḥ(w)i̯=fĠnĠkꜣ(=ꞽ)-ḥ(w)i̯=fĠnĠkꜣ(=ꞽ)-ḥ(w)i̯=fĠnĠkꜣ(=ꞽ)-ḥ(w)i̯=fĠn",
  "6307": "-ꜥnḫ-w",
  "6308": "-ꜥnḫ-wḏꜣ-snb",
  "6309": "r-rʾ",
  "6310": "ĠnnĠꞽnk",
  "6311": "ĠrĠꞽn",
  "6312": "Ġꜥḏd.w",
  "6313": "ĠꞽwĠ⸗fĠḥrĠḏi̯.t",
  "6314": "Ġrš.wt",
  "6315": "ĠtwĠ⸗k",
  "6316": "~gꜣ~",
  "6317": "Ġ⸗kĠḫr",
  "6318": "wĠ⸗fĠm",
  "6319": "Ġ⸗fĠꞽwĠ⸗fĠḥr",
  "6320": "ĠpꜣyĠ⸗fĠsnĠšrꞽ",
  "6321": "ĠmtwĠ⸗f",
  "6322": "Ġḥꜣ~n~rʾ",
  "6323": "Ġḥꜣ~n~rʾĠnĠ⸗ꞽ",
  "6324": "Ġ⸗kĠbw",
  "6325": "~npl",
  "6326": "Ġḫꞽ",
  "6327": "Ġr-ḏ",
  "6328": "ꜥ~",
  "6329": "ĠbnĠmntk",
  "6330": "ĠpꜣꞽĠnṯr-ꜥꜣ",
  "6331": "Ġr:",
  "6332": "Ġpꜣ-wn",
  "6333": "Ġmꜥ~hꜣ~ꞽrʾ",
  "6334": "Ġꞽwnw-šmꜥ",
  "6335": "ĠnfrĠsnbĠ⸗k",
  "6336": "Ġꞽṯꜣy",
  "6337": "Ġ⸗ʾ",
  "6338": ".PLĠ⸗f",
  "6339": "Ġ⸗ꞽĠsw",
  "6340": "ĠnĠ⸗n",
  "6341": "ĠḫꜣꜥĠ⸗k",
  "6342": "-ḥrĠ⸗f",
  "6343": "Ġgmi̯Ġ⸗f",
  "6344": "Ġḏr.tĠ⸗f",
  "6345": "-ḏi̯Ġ⸗k",
  "6346": "Ġḥr.ꞽ-zꜣ.w.PL-zẖꜣ.wĠꞽmn-m-ꞽn.tĠnĠpr-ḥḏĠnĠpr-ꜥꜣĠꜥnḫ-wḏꜣ-snbĠḏdĠn",
  "6347": "Ġḥr.ꞽ-zꜣ.w.PL-zẖꜣ.wĠꞽmn-m-ꞽn.tĠnĠpr-ḥḏĠnĠpr-ꜥꜣĠꜥnḫ-wḏꜣ-snbĠḏdĠnĠzẖꜣ.wĠpn-tꜣ-wr.t",
  "6348": "Ġṯꜣ~",
  "6349": "Ġnb-r-ḏr",
  "6350": "Ġbꜣ~tʾ",
  "6351": "ĠpꜣĠwꜥb",
  "6352": "ĠꞽrĠrmṯ",
  "6353": "Ġꜥꜣ-n",
  "6354": "ĠḫꜣꜥĠ⸗kwꞽ",
  "6355": "ĠsḏmĠpꜣ",
  "6356": "ĠmĠpꜣyĠ⸗f",
  "6357": "Ġ⸗fĠnĠ⸗k",
  "6358": "ĠꞽwĠ⸗ꞽĠḥr",
  "6359": "ĠptrꞽĠ⸗k",
  "6360": "Ġꞽ:ꞽri̯.t",
  "6361": "ĠnꜣĠrmṯ",
  "6362": "Ġwnw.tĠn",
  "6363": "Ġsꜥꜣ",
  "6364": "Ġẖꜥꜣ",
  "6365": "ĠpꜣĠꜥš",
  "6366": "-ꞽwnw",
  "6367": "-n-pꜣ-rꜥ",
  "6368": "Ġḏbꜥ.w",
  "6369": "ĠtmĠḫꜣꜥ",
  "6370": "-n-ḫ",
  "6371": "ĠšmĠr-ḥry",
  "6372": "Ġmꜣꜥ.w",
  "6373": "Ġ(n-)rnĠ=y",
  "6374": "ꜣsĠsꜣ",
  "6375": "ꜣs",
  "6376": "ĠꞽrmĠnṯrĠnbĠnty",
  "6377": "ĠꞽrmĠnṯrĠnbĠntyĠḥtp",
  "6378": "ĠsꜣĠhry=w",
  "6379": "ĠꜥnḫĠbyĠ=s",
  "6380": "ĠḥrĠtꜣĠḫꜣs.t",
  "6381": "-n-pr-ꞽmn",
  "6382": "ĠsꜣĠpa-mn",
  "6383": "Ġrmṯ.wĠn",
  "6384": "ĠꞽrmĠnꜣĠrmṯ.w",
  "6385": "Ġn-ḏr.ṱ",
  "6386": "ĠšspĠ=yĠs",
  "6387": "ĠsẖĠbꜣk",
  "6388": "-n-sn",
  "6389": "ĠꞽrmĠpꜣyĠ=f",
  "6390": "ĠmtwĠ=yĠꞽrĠ=w",
  "6391": "Ġḥtr.ṱ",
  "6392": "Ġbn-ꞽwĠrḫĠrmṯĠnbĠnĠpꜣĠtꜣĠꞽnk",
  "6393": "ĠdyĠ=yĠs",
  "6394": "ĠṱĠ=(y)",
  "6395": "ĠnĠwꜣḥ-mw",
  "6396": "ĠsswĠnb",
  "6397": "Ġr-bnrĠn",
  "6398": "Ġ=yĠm",
  "6399": "ĠkyĠrꜣ",
  "6400": "Ġh̭w",
  "6401": "ĠrnĠ=t",
  "6402": "ĠmtwĠ=tĠs",
  "6403": "ĠsꜣĠpꜣ-s-n-mṯk",
  "6404": "-mnĠta",
  "6405": "(y.t",
  "6406": "(y.t)",
  "6407": "ĠwsꞽrĠḥr",
  "6408": "ĠtwĠ=tn",
  "6409": "-mwĠn",
  "6410": "-byn",
  "6411": "ĠpꜣyĠ=fĠꞽt",
  "6412": "ĠpꜣĠym",
  "6413": "ĠꞽbĠ=t",
  "6414": "Ġsy-nsw",
  "6415": "Ġꜥ.wy-(n-)",
  "6416": "ĠꜥnḫĠpꜣyĠ=sĠby",
  "6417": "ĠpꜣĠkke",
  "6418": "ĠhbĠ=wĠnĠ=yĠn.ꞽmĠ=s",
  "6419": "Ġ=fĠm-bꜣḥĠpr-ꜥꜣ",
  "6420": "ĠnĠrmṯ-rḫ",
  "6421": "Ġby-(n-)ḥp-wsꞽrĠpꜣĠnṯr-ꜥꜣ",
  "6422": "ĠpꜣĠꞽt.ṱ",
  "6423": "Ġwrh̭=f",
  "6424": "ĠpꜣĠnṯrĠnty",
  "6425": "ĠꞽrmĠtꜣĠsḥm.t",
  "6426": "ĠsꜣĠptḥ",
  "6427": "Ġ=wĠꞽwĠ=w",
  "6428": "r-ꞽḥy",
  "6429": "ĠtwĠ=fĠꞽnĠ=w",
  "6430": "ĠḥrĠpꜣĠšr",
  "6431": "ĠḥrĠpꜣĠšrĠtꜣ",
  "6432": "Ġẖrꜣ.t",
  "6433": "Ġr.wnĠnĠ=y",
  "6434": "ĠtꜣĠwp.tĠn",
  "6435": "Ġꜣs.tĠnb.t-ḥ.t",
  "6436": "Ġ=fĠpr",
  "6437": "Ġmw.tĠ=sĠtꜣ-šr.t",
  "6438": "ĠꞽwĠḫr",
  "6439": "ĠẖnĠs.t-ḏbꜣ",
  "6440": "Ġpꜣy=s",
  "6441": "Ġpꜣy=s-sm",
  "6442": "ĠꞽwĠ=fĠẖn",
  "6443": "ĠpꜣĠšyĠꞽrmĠpꜣĠsḫnĠntyĠꞽyĠpꜣĠnṯrĠpꜣĠntyĠṯꜣy",
  "6444": "Ġnty-ꞽwĠ=k",
  "6445": "Ġpꜣe",
  "6446": "Ġꜥ.wy.w-n",
  "6447": "ĠrĠpꜣĠtꜣ",
  "6448": "Ġtꜣ-ḥꜣ.t",
  "6449": "ĠꞽrmĠtꜣĠwꜥb.t",
  "6450": "ĠpꜣĠsẖ-(n-)nꜣ",
  "6451": "Ġ(n)Ġpr-ꜥꜣ",
  "6452": "Ġm-sꜣĠwsꞽr",
  "6453": "ĠnĠnꜣĠwꜥb.w",
  "6454": "thꜥ",
  "6455": "ĠrĠnꜣy",
  "6456": "ĠsꜣĠꜥnḫ-ḥr",
  "6457": "yĠpꜣĠwynĠnĠ=y",
  "6458": "yĠpꜣĠwynĠnĠ=yĠr-ẖn",
  "6459": "ĠrĠpꜣĠꜥḫ",
  "6460": "-ḫṱ",
  "6461": "Ġtꜣ-šr(.t)-n",
  "6462": "ĠpꜣĠḥꜣty.ṱ",
  "6463": "Ġꞽhwre.tĠꞽrm",
  "6464": "ĠnĠpꜣĠhp",
  "6465": "ĠwḫꜣĠ=sĠdy",
  "6466": "ĠhbĠ=w",
  "6467": "ĠpꜣĠnṯrĠnty-ꞽwĠpꜣ",
  "6468": "Ġn-ḏr.ṱĠ=f",
  "6469": "ĠmtwĠ=kĠꜥš",
  "6470": "Ġ=sĠpꜣ",
  "6471": "Ġnty-ꞽwĠbw-ꞽrĠ=f",
  "6472": "Ġm-sꜣĠ=t",
  "6473": "ĠḥnꜥĠrmṯĠnbĠnty",
  "6474": "ĠtꜣyĠ=fĠsḥm.t",
  "6475": "Ġwynn",
  "6476": "Ġbꜣk-(n-)sbk",
  "6477": "ĠmtwĠ=fĠṯꜣy",
  "6478": "ĠnꜣĠmd.t(.w)",
  "6479": "Ġmhw.t",
  "6480": "Ġꞽ.ꞽr-ḥrĠpꜣĠmr-ꜣḥ",
  "6481": "Ġꞽ.ꞽr-",
  "6482": "ĠpꜣĠrd",
  "6483": "ĠnĠtꜣy=w-ḏy",
  "6484": "Ġpꜣy-kꜣ",
  "6485": "ĠꜥnĠpꜣy",
  "6486": "ĠdyĠ(=y)",
  "6487": "Ġmwẖ",
  "6488": "Ġšn-hne",
  "6489": "tsy",
  "6490": "yĠnĠ=y",
  "6491": "Ġr.ꞽmĠr-ẖn",
  "6492": "ĠtꜣyĠ=fĠḥm.tĠnꜣyĠ=fĠẖrd.ṱ.wĠnĠnw.t",
  "6493": "Ġwrꜣ.t",
  "6494": "ĠtꜣĠmr.t",
  "6495": "Ġ(sꜣ)Ġnḫṱ",
  "6496": "Ġlbše",
  "6497": "Ġḏr.t.ṱĠ=f",
  "6498": "ĠstĠnĠ=k",
  "6499": "Ġr.ḥrĠ=k",
  "6500": "ĠnꜣĠsm",
  "6501": "ĠmtwĠpꜣyĠ=fĠby",
  "6502": "ĠmtwĠpꜣyĠ=fĠbyĠšms",
  "6503": "ĠꜥršĠn",
  "6504": "Ġpsṱ",
  "6505": "ĠšꜥĠnḥḥĠḏ.t",
  "6506": "Ġ(n)Ġwꜥb",
  "6507": "ĠnꜣyĠ=(y)Ġmd(.t).w",
  "6508": "ĠḏdĠbn",
  "6509": ".tĠmw.tĠ=sĠta-tw-tꜣ",
  "6510": "ĠwꜣḥĠ=w",
  "6511": "Ġtg",
  "6512": "Ġmqy",
  "6513": "ĠnꜣĠwꜥb.w-n",
  "6514": "ĠḏdĠ=wĠnĠ=k",
  "6515": "ĠdyĠpꜣ-dy-ꜣs.t",
  "6516": "ĠpꜣĠšmĠn",
  "6517": "ĠḫfṱḥĠn",
  "6518": "Ġrsṯꜣw",
  "6519": "Ġqlwḏ",
  "6520": "ĠnĠpꜣĠsꜥnḫ",
  "6521": "ĠhbĠn",
  "6522": "ĠꞽrmĠnꜣyĠ=fĠẖrd.ṱ.w",
  "6523": "e.wĠn",
  "6524": "ĠtꜣyĠ=fĠꜣmy.t",
  "6525": "Ġḫm-ẖl",
  "6526": "ĠwsꞽrĠwn-nfr",
  "6527": "Ġm-sꜣĠrmṯ",
  "6528": "Ġꞽn-qdy",
  "6529": "Ġby-n-ḥp-wsꞽr",
  "6530": "ĠpꜣyĠ=tn",
  "6531": "Ġtw=w",
  "6532": "Ġtw=w-st",
  "6533": "Ġtꜣ-sn",
  "6534": "Ġwnmy",
  "6535": "Ġwhy",
  "6536": "Ġgrr",
  "6537": "Ġ(=y)Ġr",
  "6538": "ĠnĠwꜥb",
  "6539": "Ġḥr-bḥtt",
  "6540": "Ġḫꜥ-ḥp",
  "6541": "Ġ=yĠrĠpꜣ",
  "6542": "ĠꞽrmĠtꜣĠfy(.t)",
  "6543": "ꜣ.tĠnĠpꜣyĠ=t",
  "6544": "ĠḫprĠr-ꜥ.wy",
  "6545": "ĠmtwĠ=yĠdy.tĠsĠnĠ=t",
  "6546": "ĠnꜣĠg",
  "6547": "ĠꞽnpĠm",
  "6548": "-wyt",
  "6549": "sre.t",
  "6550": "-ẖr",
  "6551": "Ġḏrꜣ",
  "6552": "Ġmd.tĠnbĠnty-ḥry",
  "6553": "Ġqnḥy",
  "6554": "Ġꞽt-nṯrĠwꜥbĠrd",
  "6555": "ĠsꜣĠwsꞽr-wr",
  "6556": "ĠgmĠ=y",
  "6557": "Ġrmṯ-nṯr",
  "6558": ".ꞽnk",
  "6559": "ĠrĠpꜣĠẖbs",
  "6560": "Ġbw-ꞽrĠ=fĠꞽr",
  "6561": "Ġr-ꞽwĠ=y",
  "6562": "ĠšspĠ=k",
  "6563": "Ġqqy",
  "6564": "ĠnĠmd.t-mꜣꜥ.t",
  "6565": "ĠsẖĠpꜣ-dy-wsꞽr",
  "6566": "ĠsẖĠr-ḥry",
  "6567": "Ġky-ḏmꜥ",
  "6568": "ꜥ.wy",
  "6569": "ĠsꜣĠpꜣ-dy-nfr-ḥtp",
  "6570": "ĠꞽwtĠ=w",
  "6571": "ĠrĠpꜣĠmꜣꜥĠnty-ꞽwĠpr-ꜥꜣ",
  "6572": "Ġḥry-sš",
  "6573": "ĠꜥšĠ=fĠsẖ",
  "6574": "Ġsbk-nb-tn",
  "6575": "ĠꞽwĠ=yĠtmĠdy.t",
  "6576": "ĠnĠḥꜣty.ṱ",
  "6577": "ĠnꜣĠsꜣ",
  "6578": "Ġꜥš-sḥnĠnfr",
  "6579": "Ġlꜥ",
  "6580": "ĠrĠḥ.t-nṯr",
  "6581": "-rpy",
  "6582": "ĠpꜣĠrmṯĠpr-",
  "6583": "-md(.t)",
  "6584": "Ġpꜣ-šr-mnṱ",
  "6585": "-šr.t",
  "6586": "Ġmtry",
  "6587": "ĠꞽwĠ=fĠsẖĠẖr-rd.wy",
  "6588": "Ġhtm",
  "6589": "Ġmḥ-6",
  "6590": "Ġpꜣ-s-n-mṯk",
  "6591": "Ġwn-mtwĠ=f",
  "6592": "ĠpꜣĠwꜥb-n",
  "6593": "ĠnĠpꜣĠḥtp-nṯr",
  "6594": "ĠmtwĠ=fĠḏrĠ=w",
  "6595": "Ġr.ꞽre",
  "6596": "Ġꞽw.ꞽ",
  "6597": "Ġ(n)ĠpꜣĠtꜣ",
  "6598": "ĠsꜣĠpꜣ-dy-ꞽmn",
  "6599": "Ġdy.tĠꞽrĠ=f",
  "6600": "Ġnṯry",
  "6601": "Ġn.ꞽmĠ=sĠꞽwĠ=sĠr",
  "6602": "ĠnĠpꜣĠhrw",
  "6603": "ĠnꜣyĠ=kĠẖrd.ṱ.w",
  "6604": "hwe",
  "6605": "=w-tꜣ",
  "6606": "ĠrḫĠḏd",
  "6607": "Ġsꜥl",
  "6608": "ĠmtwĠ=kĠdy.tĠpꜣ",
  "6609": "Ġbn-ꞽwĠ(=y)",
  "6610": "ĠꞽĠꞽrĠ=fĠpꜣĠꜥḥꜥĠnĠpꜣ-rꜥ",
  "6611": "ĠgmĠ=f",
  "6612": "ĠẖnĠḥ.t-nṯr",
  "6613": "Ġꞽ.ꞽr-nĠ=k",
  "6614": "Ġrd.wy.ṱĠ=f",
  "6615": "ĠnfrĠsp-2",
  "6616": "ĠnbĠsẖ",
  "6617": "ĠtꜣyĠ=fĠḥm.tĠnꜣyĠ=fĠẖrd.ṱ.wĠnĠtꜣ",
  "6618": "Ġ=kĠnĠ=y",
  "6619": "Ġsṯꜣ.ṱĠ=f",
  "6620": "ĠtꜣĠnb.tĠn",
  "6621": "ĠḏdĠ=yĠnĠ=f",
  "6622": ".ḏd",
  "6623": "Ġ=(y)Ġs",
  "6624": "ĠpꜣĠnṯ",
  "6625": "ĠnꜣĠꜥ.wy.wĠn",
  "6626": "ĠnꜣĠḫ",
  "6627": "Ġpꜣ-dy-ꜣs.tĠsꜣĠwḏꜣ-smꜣ-tꜣ.wy",
  "6628": "-nꜣ-nfr.t",
  "6629": "ĠsꜣĠꞽt-nṯr",
  "6630": "ĠsꜣĠpꜣ-ḥtr",
  "6631": "Ġnḥṱy",
  "6632": "Ġbn-pwĠ=fĠwrr",
  "6633": "ĠtꜣyĠ=fĠdny.t",
  "6634": "ĠꞽwĠ=kĠꞽr",
  "6635": "ĠrpyĠ=t",
  "6636": "ĠẖrĠtꜣ",
  "6637": "Ġptwlmy",
  "6638": "ĠnꜣyĠ=n",
  "6639": "Ġmnṱ-nb",
  "6640": "-wꜣs(.t)",
  "6641": "ĠmtwĠ=kĠmḥ",
  "6642": "-sn.wĠꞽrmĠnꜣĠnṯr.w-mnḫ.w",
  "6643": "ĠnꜣyĠ=wĠẖrd.ṱ.w",
  "6644": "aĠtꜣ",
  "6645": "ĠpꜣyĠ=kĠn",
  "6646": "-šnꜥ",
  "6647": "-sṯꜣ.PL",
  "6648": "ĠḫprĠmꞽ",
  "6649": "ĠḫrĠnṯr.PL",
  "6650": "ĠḥtpĠ=ṯ",
  "6651": "-rs.ꞽ",
  "6652": "Ġḫ(w)fw",
  "6653": "Ġḫ(w)fwĠmꜣꜥ-ḫrw",
  "6654": "Ġꞽmꜣḫ.y",
  "6655": "Ġ(ꞽ)m(.ꞽ)-s.t-kꜣ(=ꞽ)",
  "6656": "ĠḥsbĠmĠg(ꜣ)b",
  "6657": "Ġdḥ",
  "6658": "-ꜥnḫ-n",
  "6659": "-ꜥnḫ-nfr-kꜣ-rꜥw",
  "6660": "Ġḥr.ꞽ-tp-ꜥꜣ-(n-)tꜣ",
  "6661": ".ꞽĠzꜣ",
  "6662": "Ġ=kĠḫntĠꜣḫ.PL",
  "6663": "ĠꞽzĠꞽnp.w",
  "6664": "Ġtp.PL",
  "6665": "Ġnw(.w)",
  "6666": "Ġḏd.t.nĠ=f",
  "6667": "Ġ(ꞽ)m.(ꞽ)-rʾ-pr-wrĠnb",
  "6668": "Ġꞽšd",
  "6669": "Ġ=kĠrḏ",
  "6670": "-ꞽm.ꞽ-rʾ",
  "6671": "Ġgsꜣ",
  "6672": "Ġꞽnp.wĠtp(.ꞽ)-ḏw=f",
  "6673": "Ġꞽ:rs",
  "6674": "Ġꞽr.tĠ=fĠm-ꜥ",
  "6675": "Ġšnḏ",
  "6676": "Ġḏ(d)-mdwĠḥr.wĠꜥḥꜣ",
  "6677": "Ġnb.t-ꞽmꜣḫ",
  "6678": "Ġmꜣꞽ",
  "6679": "Ġwr-mḏ-šmꜥ.wĠ(ꞽ)r(.ꞽ-ꞽ)ḫ(.t)-nswt",
  "6680": "Ġꞽni̯.tĠnḏ.t-ḥr",
  "6681": "Ġn.ꞽ.(w)t",
  "6682": "Ġn(.ꞽ).t",
  "6683": "w-n",
  "6684": "Ġrn-snb",
  "6685": "Ġdp.w",
  "6686": "Ġḏḏ=f-ḥr",
  "6687": "ĠꞽĠ(ꞽ)",
  "6688": "ĠꞽĠ(ꞽ)ty",
  "6689": "ĠꞽĠ(ꞽ)tyĠꜥnḫ-(w)ḏꜣ-s(nb)",
  "6690": "Ġḥtp-ḏi̯ĠnswtĠḥtp-ḏi̯Ġwsꞽr",
  "6691": ".t)",
  "6692": "ĠmĠnĠ=k",
  "6693": "Ġḥzmn",
  "6694": ".PLĠ=fĠr",
  "6695": "Ġnb-ꜣbḏwĠm",
  "6696": ".PLĠ=fĠm",
  "6697": "ĠṯwĠnṯr.PL",
  "6698": "Ġ=kĠpri̯",
  "6699": "ĠḫrĠ=kĠn",
  "6700": "hꞽ",
  "6701": "ḫḫ",
  "6702": ".wDU",
  "6703": "-s.tPL",
  "6704": "Ġwz",
  "6705": "Ġwḥm-ꜥnḫ",
  "6706": "Ġmsi̯.nĠnb.t-pr",
  "6707": "Ġmṯ",
  "6708": "Ġꞽ:ḫm.w-sk",
  "6709": "Ġꜥn.t",
  "6710": "Ġḫ.t.PL",
  "6711": "Ġd(w)",
  "6712": "Ġnmꞽ",
  "6713": "-šꜥ",
  "6714": "Ġ(ꞽ)ḫ.t.PL",
  "6715": "ĠḥrĠqꜣ",
  "6716": "ĠꞽhĠ=f",
  "6717": "bꞽ",
  "6718": "ĠḥtpĠnĠ=k",
  "6719": "ĠkwĠm",
  "6720": "Ġšsꜣ.wĠwbn.wĠn(.ꞽ)Ġkf.tĠm",
  "6721": "Ġḥw.t-ḥr.w",
  "6722": "Ġwr-mḏ.PL-šmꜥ.wĠsbk-ḥtp",
  "6723": "Ġpri̯ĠmĠ(w)sr(.w)",
  "6724": "Ġꞽbḥ.PLĠ=k",
  "6725": "ĠḫsfĠ=kĠꜣĠꞽwi̯",
  "6726": "ĠḫsfĠ=kĠꜣĠꞽwi̯Ġnmt.ꞽ-m-zꜣ=fĠmr.n-rꜥw",
  "6727": "ĠḫsfĠ=kĠꜣĠꞽwi̯Ġnmt.ꞽ-m-zꜣ=fĠmr.n-rꜥwĠꞽrĠbw",
  "6728": "ĠḫsfĠ=kĠꜣĠꞽwi̯Ġnmt.ꞽ-m-zꜣ=fĠmr.n-rꜥwĠꞽrĠbwĠn.tꞽ",
  "6729": "ĠḫsfĠ=kĠꜣĠꞽwi̯Ġnmt.ꞽ-m-zꜣ=fĠmr.n-rꜥwĠꞽrĠbwĠn.tꞽĠ=kĠꞽm",
  "6730": "Ġrn-ꜥꜣ",
  "6731": "Ġꞽmꞽ",
  "6732": "Ġmri̯.t",
  "6733": "Ġk.tĠpẖr.t",
  "6734": "Ġꜣtf",
  "6735": "zw-bꞽ.tꞽĠn(.ꞽ)-nṯr-nb.tꞽ",
  "6736": "ĠwrĠm",
  "6737": "Ġḥꜥp(ꞽ)",
  "6738": "Ġḏd.nĠ=ꞽ",
  "6739": "Ġḫꜥ.w",
  "6740": "Ġbn(ꞽ).t",
  "6741": "Ġsḫti̯ĠnĠ=kĠs(ꞽ)",
  "6742": "Ġḥr.wĠnṯr(.ꞽ)-ẖ",
  "6743": "Ġꞽꜣq",
  "6744": "-ꜣbḏ.w",
  "6745": "Ġspd.w",
  "6746": "šm.t",
  "6747": "-ḫnt(.w)-š-pr-ꜥꜣ",
  "6748": "Ġbb.wꞽ",
  "6749": "Ġḏrḏ",
  "6750": ".nĠ=kĠm",
  "6751": "Ġḥtp-ḏi̯-nswtĠḥr-bḥ",
  "6752": "Ġpḥ(.w)",
  "6753": "Ġpḥ(.w)-n-ptḥ",
  "6754": "Ġšps.t",
  "6755": "i̯Ġ=kĠꞽr",
  "6756": "Ġꜣw.t-ꞽb",
  "6757": "Ġpsḏ.tĠn",
  "6758": "ĠzꜣĠ=fĠsms.wĠmr.yĠ=f",
  "6759": "-)n",
  "6760": "Ġḥw.t-nb",
  "6761": "Ġs.t-ꞽb",
  "6762": "Ġḥzz.t",
  "6763": "Ġꞽb.t",
  "6764": "Ġ(w)sꞽrĠḏi̯.n",
  "6765": "Ġꞽmꜣ",
  "6766": "ĠꜥḥꜥĠṯzi̯Ġṯw",
  "6767": "Ġꜣd",
  "6768": "Ġḫnt(.ꞽ)-tꜣ-ḏsr",
  "6769": "ĠgsĠꞽmn.t(ꞽ)",
  "6770": "Ġwꜥb-nswtĠ(ꞽ)r(.ꞽ-ꞽ)ḫ(.t)-nswt",
  "6771": "Ġkꜣ.PLĠm",
  "6772": "Ġgmḥ",
  "6773": "ĠḥrĠnm.t",
  "6774": "-ꞽḥ.PL",
  "6775": "Ġsḥḏ-ḫnt.w-š",
  "6776": "sr.y",
  "6777": "Ġ=kĠꞽmĠ=sn",
  "6778": "ĠꞽzĠkꜣĠrḫ.yt",
  "6779": "ĠpẖrĠnĠ=f",
  "6780": "Ġ=kĠbꜣ",
  "6781": "Ġmzḥ",
  "6782": "Ġbꜣ.tꞽ",
  "6783": "Ġ=kĠmꞽ",
  "6784": "ĠrwḏĠmḥr",
  "6785": "ĠrwḏĠkꜣ.t",
  "6786": "Ġḥr.ꞽ-ḏbꜥ",
  "6787": "Ġšzp.n",
  "6788": "Ġṯf",
  "6789": "Ġsnm.t",
  "6790": "ĠsbḫĠnĠ=k",
  "6791": "s.t-ḫnt.ꞽ",
  "6792": "s.t-ḫnt.ꞽt",
  "6793": ".nĠ=s",
  "6794": "Ġḥꜣw",
  "6795": "Ġ=fĠḫr",
  "6796": "Ġ=fĠmꜣꜥ.t",
  "6797": "-špss-kꜣ=f",
  "6798": "-ꜥn.w",
  "6799": "ĠrnĠ=fĠnfr",
  "6800": "zw-bꞽ.tꞽĠqꜣ-ꜥ-nb.tꞽ",
  "6801": "Ġḥtp-nb.tꞽ",
  "6802": "Ġmrḥ(.t)",
  "6803": "Ġ=snĠꞽr",
  "6804": "Ġwr-mḏ-šmꜥ",
  "6805": "i̯Ġ=fĠṯw",
  "6806": "Ġmw-rn",
  "6807": "Ġmw-rnp.w",
  "6808": "Ġmw-rnp.w(ꞽ)",
  "6809": "Ġmrr(.w)-nb=fĠkꜣ(.ꞽ)-m-ꜥnḫ",
  "6810": "Ġꞽꜥ.w",
  "6811": "Ġꜥb.wĠ=k",
  "6812": "Ġꜥb.wĠ=kĠꜥb.w",
  "6813": "Ġpꜣ.t",
  "6814": "Ġꞽꜣ(.t).PL",
  "6815": "Ġḥꜥ.PLĠ=f",
  "6816": "Ġḥr.w-ꜣḫ.tꞽ",
  "6817": "Ġnn-n",
  "6818": "Ġrḏi̯.ḫrĠ=k",
  "6819": "(.t)-nꞽ.t",
  "6820": "ĠmĠḫmĠwnꞽs",
  "6821": "Ġqs.PLĠ=f",
  "6822": "Ġḥ(n)q.tĠḫꜣ",
  "6823": "Ġnb.t-prĠzꜣ.t",
  "6824": "Ġsꞽp",
  "6825": "Ġḥkꜣ.PL",
  "6826": "Ġḏi̯Ġ=ṯ",
  "6827": "Ġḥꜣg",
  "6828": "n.wĠm",
  "6829": "Ġwt.ḫrĠ=kĠswĠḥrĠꞽmr.w.PL",
  "6830": "Ġsrḫ",
  "6831": "ĠḥrĠ=ṯ",
  "6832": "ĠzꜣĠ=ꞽ",
  "6833": "ĠḥmĠ=ꞽ",
  "6834": "Ġsḫ.tĠn",
  "6835": "(p",
  "6836": "Ġꞽḥw",
  "6837": "-wp",
  "6838": "Ġsḫ.t-ꞽꜣr.w",
  "6839": "Ġn(.ꞽ)-ꜥnḫ",
  "6840": "ĠkꜣĠ=kĠm-ḫt",
  "6841": "ꜥ.w",
  "6842": "Ġḏi̯.w",
  "6843": "ĠtrĠn",
  "6844": "Ġꞽꜣd",
  "6845": "-kꜣ=(ꞽ)",
  "6846": "Ġ(ꞽ)m(.ꞽ)-rʾ-sšr(.w)",
  "6847": "ĠmĠrnĠ=kĠꞽm(.ꞽ)",
  "6848": "Ġmꜣs.t",
  "6849": "Ġwnn.tĠm",
  "6850": "Ġḥn.w-kꜣ(=ꞽ)",
  "6851": "Ġḫpi̯Ġ=fĠḥrĠwꜣ.t.PLĠnfr.(w)t",
  "6852": "Ġḫpp!.(w)tĠꞽmꜣḫ.w",
  "6853": "Ġbꞽn.t",
  "6854": "Ġwpi̯-rnp.tĠḏḥw.t(y)tĠtp.ꞽ-rnp.tĠwꜣgĠḥꜣb",
  "6855": "Ġpri̯.tꞽ",
  "6856": "Ġpri̯.tꞽĠnĠ=k",
  "6857": "Ġpri̯.tꞽĠnĠ=kĠḫrw",
  "6858": "Ġḫsbd",
  "6859": "ĠṯwtĠwrĠꞽrĠ=f",
  "6860": "Ġmsḏr.DUĠ=fꞽ",
  "6861": "ĠnĠkꜣĠn(.ꞽ)",
  "6862": "Ġḥm-nṯr-ḥr.w",
  "6863": "Ġꜣbḏw",
  "6864": "Ġꞽ:bꜣĠ=k",
  "6865": "-ꞽbĠn",
  "6866": "Ġmnmn",
  "6867": "Ġsṯꞽ",
  "6868": "Ġṯtf",
  "6869": "Ġgr.w",
  "6870": "Ġꞽri̯Ġr",
  "6871": "ĠḥtpĠḏi̯Ġnswt",
  "6872": "t(ꞽ)",
  "6873": "ĠꜣpdĠdšr",
  "6874": "-bꜣ.t",
  "6875": "Ġpšš.nĠs(ꞽ)",
  "6876": "r.w-nb=f",
  "6877": "-mʾw.t",
  "6878": "-mʾw.t=f",
  "6879": "Ġ(ꞽ)m(.ꞽ)-rʾ-ḥm",
  "6880": "ĠnĠnhpĠ=fĠnĠnhpĠwnꞽsĠpn",
  "6881": "ĠzĠnb",
  "6882": "Ġzf",
  "6883": "Ġḥt(m)ĠḥrĠ=kĠꞽmĠ=s",
  "6884": "ĠsdĠm",
  "6885": "Ġwbs",
  "6886": "Ġšni̯.t",
  "6887": "Ġsḥr",
  "6888": "Ġ=kĠswĠm",
  "6889": "Ġ=fĠm-ꜥĠ=k",
  "6890": "Ġtʾ-rtḥ",
  "6891": "ĠꞽnĠḥm",
  "6892": "Ġḫtm.w-nṯr-wꞽꜣ-bꜣ-nṯr.wĠḫtm.w-nṯr-wꞽꜣ-dwꜣ-tꜣ.wꞽ",
  "6893": "ĠṯwtĠkꜣĠ=f",
  "6894": "Ġꜣb.w",
  "6895": "-pẖr",
  "6896": "-n-nb=f",
  "6897": "Ġpr.t-ḫrwĠtʾĠḥnq.tĠkꜣ.PLĠꜣpd.PL",
  "6898": "Ġꜣgb(.w)",
  "6899": "Ġnḫt.y",
  "6900": "-wꜣḏ.t",
  "6901": "Ġ(ꞽ)r(.ꞽ)-(ꞽ)ḫ.t",
  "6902": "Ġḥr.wĠsḫm",
  "6903": "Ġsnm",
  "6904": "(w).t.PL",
  "6905": "-ꜥĠm",
  "6906": "Ġsꜣḫ.t",
  "6907": "Ġ5",
  "6908": "ĠmĠḥw.t",
  "6909": "Ġnb(.t)-ḥw(.t)",
  "6910": "Ġḫd",
  "6911": "Ġꜣbd.w",
  "6912": "Ġ=kĠḥr.wĠꜥḥꜣ",
  "6913": "Ġnnm",
  "6914": "ꞽĠꞽn",
  "6915": "Ġsmr-wꜥ.tꞽĠḥr.ꞽ-tp-nḫb",
  "6916": "Ġsmḫ",
  "6917": "Ġḥꜥ.w",
  "6918": "Ġꜥpr.t",
  "6919": "r-dw",
  "6920": "Ġꞽri̯.ḫrĠ=kĠnĠ=f",
  "6921": "ĠzꞽĠḥr.w",
  "6922": "ĠꞽpĠnĠ=kĠs(ꞽ)",
  "6923": "Ġmsdi̯",
  "6924": ".PLĠ=snĠꞽsṯ",
  "6925": "Ġsnṯ",
  "6926": "fn",
  "6927": "ĠḥrĠb",
  "6928": "Ġsqdi̯",
  "6929": "ĠṯwtĠwrĠꞽm(.ꞽ)Ġms.w",
  "6930": "ĠꞽwĠ=fĠrḫ",
  "6931": "Ġ=fĠḥrĠtꜣ",
  "6932": "ẖn.tꞽ",
  "6933": "t.tꞽ",
  "6934": "ĠzꜣĠ=kĠpri̯.wĠḫr",
  "6935": "ĠzꜣĠ=kĠpri̯.wĠḫrĠḥr.w",
  "6936": "(-mr)",
  "6937": ".w.PLĠnb",
  "6938": "-ms.w",
  "6939": "Ġpẖr.w",
  "6940": "Ġꜥwn-ꞽb",
  "6941": "Ġ(w)sr(.w)Ġnmt.ꞽ-m-zꜣ=fĠmr.n-rꜥw",
  "6942": "Ġ=fĠsk",
  "6943": "Ġfd.t",
  "6944": "Ġḥr.wĠꞽs",
  "6945": "ĠmĠhrwĠpn",
  "6946": "dĠm",
  "6947": "i̯Ġ=kĠswĠm",
  "6948": "Ġꜥrr",
  "6949": "Ġsḥḏ-ḫnt.w-š-pr-ꜥꜣ",
  "6950": ".yt.PL",
  "6951": ".ḫrĠ=kĠwbn.wĠ=f",
  "6952": "Ġskn",
  "6953": "Ġꞽ:tm",
  "6954": "-sšꜣ.t",
  "6955": ".PLĠn.t",
  "6956": "-rš",
  "6957": "sĠr",
  "6958": "Ġꞽri̯.wĠn",
  "6959": "-km",
  "6960": "Ġnmt.ꞽ-m-zꜣ=fĠmr.n-rꜥwĠḥnꜥĠ=k",
  "6961": "Ġḏfꜣ.PL",
  "6962": "ĠꞽrĠswt",
  "6963": "Ġ=kĠnṯr.PL",
  "6964": "Ġ=fĠmnḫ",
  "6965": "Ġsw.t",
  "6966": "Ġ=kĠꞽꜣ.t.PL",
  "6967": "Ġdndn",
  "6968": "Ġmri̯.y-rꜥw",
  "6969": "ĠtpĠ=fĠ(ꞽ)ꜥrĠnĠqs",
  "6970": "Ġšnw",
  "6971": "Ġṯzi̯",
  "6972": "-snw",
  "6973": "ĠꞽwĠꞽr.t",
  "6974": "Ġṯꜣ.y",
  "6975": "Ġr(w)d-ḏd.t",
  "6976": "Ġsb(ꜣ)",
  "6977": "Ġḥwꜣ",
  "6978": "Ġnṯr.PLĠnb.w.PL",
  "6979": "Ġwꜥf",
  "6980": "-ꞽp.t",
  "6981": "ĠḥrĠmꜣꜣ",
  "6982": "ĠꜥḥꜥĠm",
  "6983": "Ġꜥḏ-mr-",
  "6984": "ĠkwĠḥr.w",
  "6985": "Ġṯm",
  "6986": "Ġꞽy-mr.y",
  "6987": "t.ꞽw",
  "6988": "Ġꞽri̯Ġn",
  "6989": "ĠḫprĠnĠ=f",
  "6990": "Ġꜥꜣ.PL",
  "6991": "Ġsti̯",
  "6992": "Ġfꜣi̯.t",
  "6993": "Ġpr-ḥ",
  "6994": "Ġꞽni̯.(t)",
  "6995": "Ġꞽni̯.(t)Ġḥm-ꜥꜣ",
  "6996": "Ġḫpr.tꞽĠm",
  "6997": "ĠḫꜣĠḫꜣ",
  "6998": "ĠnĠšw",
  "6999": "ĠrĠnḏm",
  "7000": "Ġpds",
  "7001": "Ġbṯ",
  "7002": "ĠꜥḥꜣĠ=ꞽĠḥnꜥ",
  "7003": "-ꞽꜣw",
  "7004": "ĠsrĠḫꜣ",
  "7005": "ĠspĠn",
  "7006": "Ġnb.w.PL",
  "7007": "Ġꞽṯi̯ĠnĠ=k",
  "7008": ".y.t",
  "7009": "ĠḥrĠpr",
  "7010": "Ġdd.t",
  "7011": "ps",
  "7012": "Ġbn.t",
  "7013": "Ġꜥḥꜣ.w",
  "7014": "-ꜥnḫ-ḥw.t-ḥr.w",
  "7015": "wg",
  "7016": ".kwꞽĠr",
  "7017": "Ġsn.tĠ=k",
  "7018": "ĠꞽḫĠḏi̯",
  "7019": "Ġꜥḥ.t",
  "7020": "ĠꞽtnĠn",
  "7021": "ĠmĠḥr.w",
  "7022": "Ġ=fĠnĠpꜣ",
  "7023": "ĠꜥĠn",
  "7024": "ĠꞽnkĠpꜣ",
  "7025": "Ġmq",
  "7026": "ĠnĠky",
  "7027": "Ġsnꞽ",
  "7028": "Ġmꜣw.t",
  "7029": "ĠꞽwĠḥr",
  "7030": "ĠkyĠrʾ",
  "7031": "ĠḏdĠs",
  "7032": "Ġpḫꜣ",
  "7033": "hꜣw",
  "7034": "Ġḏi̯.tĠnĠ⸗f",
  "7035": "ĠnnĠꞽwĠ⸗ꞽĠr",
  "7036": "ĠbnĠꞽnk",
  "7037": "ĠpꜣyĠ⸗sn",
  "7038": "ĠꞽḫĠrḫĠ⸗kĠswĠgrḥ",
  "7039": "Ġm-ꞽri̯Ġḏd",
  "7040": "ĠbwĠꞽri̯Ġ⸗f",
  "7041": "ĠhꜣbĠpwĠrĠḏi̯.t",
  "7042": "ĠhꜣbĠpwĠrĠḏi̯.tĠrḫĠpꜣyĠ⸗ꞽĠnb",
  "7043": "-sḏm",
  "7044": "ĠḫꜣꜥĠ⸗f",
  "7045": "Ġꞽwtn",
  "7046": "Ġr-n.tꞽĠꞽni̯.twĠnĠ⸗kĠzẖꜣ.PLĠpnĠnĠḏd",
  "7047": "Ġmntw",
  "7048": "ĠḏdĠnĠ⸗f",
  "7049": "Ġꞽri̯.yĠ⸗ꞽ",
  "7050": "Ġr-ḏr.w",
  "7051": "ĠtꜣĠmtw.t",
  "7052": "~ḏꜣ",
  "7053": "ĠtꜣyĠ⸗kĠmꜥ~ꞽrʾ~kꜣ~bw~tꞽ.t",
  "7054": "Ġbꞽꜣ.t",
  "7055": "Ġhꜣ~",
  "7056": "Ġ⸗kĠmtwĠ⸗k",
  "7057": "Ġrʾ-ꜥ",
  "7058": ".ṱĠr",
  "7059": "-zꜣ-ꜣs.t",
  "7060": "ĠqsĠn",
  "7061": "Ġmꜥ~n",
  "7062": "Ġmtr.t",
  "7063": "ĠnꜣĠnṯr.PL-ꜥꜣ",
  "7064": "Ġḥbꜥ",
  "7065": "ĠwrĠšꜣꜥ",
  "7066": "ĠꞽtĠmw.t",
  "7067": "Ġsḥwr",
  "7068": "ĠꞽmĠ⸗st",
  "7069": "Ġm-rʾ-ꜥ",
  "7070": "-ꞽꜣ.t",
  "7071": "mn.w",
  "7072": "Ġpꜣ-n",
  "7073": "Ġ⸗stĠr",
  "7074": "ĠꞽwĠ⸗fĠḥrĠḏd",
  "7075": "ĠḏdĠ⸗tw",
  "7076": "ĠrmṯĠꞽw",
  "7077": "ĠpꜣĠmn",
  "7078": "-ḥnꜥ",
  "7079": "~n.PL~rʾ",
  "7080": "ĠpꜣĠn.tꞽĠm",
  "7081": "Ġꜣby",
  "7082": "ĠpꜣĠwr",
  "7083": "-s.t-wr.t",
  "7084": "ĠbnĠst",
  "7085": "Ġẖrb",
  "7086": "-ꜥꜣ.w",
  "7087": "Ġwꜥ.ṱ",
  "7088": "s.tĠn",
  "7089": "ĠḥrĠpꜣĠtr",
  "7090": "snꜣ",
  "7091": "ĠwyĠr.rĠ=f",
  "7092": "-mꜣtn",
  "7093": "ĠntyĠḥtpĠdyĠꞽrmĠnṯrĠnbĠntyĠḥtp",
  "7094": "ĠtꜣyĠ=fĠsn.t",
  "7095": "ĠꜥnḫĠsbk",
  "7096": "r-ꞽnp",
  "7097": "-wr-dyw",
  "7098": "Ġpꜣ-šr-ꞽmnĠsꜣ",
  "7099": "-nꜣy=w-ḫmnw-ꞽw",
  "7100": "ĠnĠsḥm.tĠta",
  "7101": "Ġḏḥwty-ꞽw",
  "7102": "ĠꞽyĠr-bnr",
  "7103": "ĠsꜣĠpꜣ-hb",
  "7104": "ĠpꜣĠḥm-nṯr-tpy",
  "7105": "ĠpꜣĠrꜥ",
  "7106": "Ġpa-rṱ",
  "7107": "ĠsꜣĠpꜣ-mr-ꞽ",
  "7108": "-n-snsn",
  "7109": "ĠsꜣĠpa-ꞽmn",
  "7110": "ĠḥnꜥĠnꜣyĠ=(y)",
  "7111": "ĠpꜣyĠ=kĠrd",
  "7112": "ĠwpyĠn",
  "7113": "Ġ=kĠm-sꜣĠ=y",
  "7114": "-rnĠ=s",
  "7115": "ĠpꜣyĠ=kĠnṯr",
  "7116": "Ġsh̭Ġnb",
  "7117": "Ġmy-tꜣy",
  "7118": "ĠnĠpꜣĠmꜣꜥ",
  "7119": "ṱ=f",
  "7120": "ĠtwĠ=yĠnw",
  "7121": "Ġh̭l",
  "7122": "-ꜥẖy",
  "7123": "ĠmḥṱĠn",
  "7124": "Ġꞽr-rḫĠsĠḏd",
  "7125": "Ġwꜣḥ-mwĠn",
  "7126": "ĠpꜣyĠ=kĠpr",
  "7127": "ĠꞽwĠsḥm.t",
  "7128": "b-rꜥ",
  "7129": "Ġby-(n-)ḥp-wsꞽrĠsḏm-(n-)ḥp-ꜥnḫĠpꜣĠnṯr-ꜥꜣĠpꜣ-dy",
  "7130": "Ġ(sꜣ)Ġṯꜣy-n.ꞽm=w",
  "7131": "Ġẖrd",
  "7132": "Ġẖrd-ꜥnḫ",
  "7133": "ĠḥsĠ=wĠṱ",
  "7134": "Ġꜥnḫ-ḥrĠsy-nsw",
  "7135": "ĠnĠpꜣĠw(yꜣ)",
  "7136": "ĠpꜣyĠ=tĠby",
  "7137": "ĠꞽwĠ=yĠrĠšꜥšꜥĠ=kĠnꜣy-ḥr",
  "7138": "Ġm-ꞽrĠmr",
  "7139": "ĠḏdĠ=yĠs",
  "7140": "-pꜣ-mwt",
  "7141": "Ġhrwṱ",
  "7142": "Ġwꜥ.tĠty",
  "7143": "ĠꞽrmĠ=fĠr-ẖ",
  "7144": "Ġ=fĠnkt",
  "7145": "Ġ=kĠmtr",
  "7146": "ĠḥꜣtyĠ=(y)",
  "7147": "Ġswḥ-ꞽy",
  "7148": "Ġswḥ-ꞽyẖ",
  "7149": "ĠꞽwĠ=nĠrĠdy.t",
  "7150": "ḫe",
  "7151": "ĠsꜣĠdy",
  "7152": "Ġr.rĠ=kĠ(r-)ḏbꜣ",
  "7153": "ĠnĠpr-ꞽw",
  "7154": "Ġwꜣḥ-ꞽb-rꜥ-m",
  "7155": "Ġns-ẖnm",
  "7156": "-mtr",
  "7157": "Ġbn-ꞽwĠpꜣĠnty",
  "7158": "ĠpꜣĠsḥn-nfr",
  "7159": "Ġmd.tĠnĠpꜣĠtꜣ",
  "7160": "ĠḥnꜥĠpꜣyĠ=fĠšr",
  "7161": "ĠḫrwĠ=f",
  "7162": "Ġkr",
  "7163": "Ġꜣṱ",
  "7164": "Ġr.ꞽmĠnĠ=y",
  "7165": "Ġfty",
  "7166": "ĠnꜣĠnṯr.w-mr-ꞽt.ṱ=wĠnꜣĠnṯr.w-nty-pr",
  "7167": "Ġbn-pwĠ=s",
  "7168": "Ġpa-ḥy",
  "7169": "Ġšꜥšꜥ",
  "7170": "ĠḏdĠ=wĠn",
  "7171": "ĠsꜣĠ=k",
  "7172": "Ġꞽ.ꞽrĠ=kĠmḥ",
  "7173": "Ġm-bꜣḥĠpꜣĠnb-nṯr.w",
  "7174": "Ġ=fĠm-ꞽrĠdy.t",
  "7175": "ptr",
  "7176": "ĠẖnĠꞽmnṱ",
  "7177": "ĠtꜣĠmnḫ.t",
  "7178": "Ġbw-ꞽrĠ=wĠgmĠḥꜣty.ṱ",
  "7179": "ĠpyrĠn",
  "7180": "ĠpꜣyĠ=fĠnb",
  "7181": "Ġnkt.w",
  "7182": "ĠsĠnĠ=y",
  "7183": "fky",
  "7184": "ĠꞽrĠpyr",
  "7185": "Ġ=fĠrĠnḥḥĠḏ.t",
  "7186": "Ġpꜣ-šꜥy",
  "7187": "ẖnm",
  "7188": "ĠnwĠr.rĠ=f",
  "7189": "Ġꜣpwl",
  "7190": "Ġḏy",
  "7191": "ĠnĠqbṱ",
  "7192": "ĠpꜣyĠ=fĠr",
  "7193": "ĠsswĠn",
  "7194": "Ġm-bꜣḥĠpꜣ-rꜥ",
  "7195": "Ġ=fĠḏdĠ=w",
  "7196": "pꜣ-)",
  "7197": "Ġḥr-šf",
  "7198": "ĠṱĠ=kĠr",
  "7199": "Ġꞽhwre.tĠꞽrmĠmr-ꞽb-ptḥ",
  "7200": "Ġꞽhwre.tĠꞽrmĠmr-ꞽb-ptḥĠpꜣyĠ=sĠšr",
  "7201": "Ġb(y)n.t",
  "7202": "ĠꞽnĠtwĠ=t",
  "7203": "Ġ(n)Ġḥm.t",
  "7204": "ĠꜥnĠn",
  "7205": "Ġꞽn-nꜣ.wĠrmṯ",
  "7206": "Ġmdy",
  "7207": "ĠnꜣĠḥs.w",
  "7208": "Ġmw.tĠ=fĠta-ꞽmn",
  "7209": "ĠpꜣĠnṯrĠnty-ꞽwĠpꜣĠwꜣḥ",
  "7210": "ĠpꜣĠnṯrĠnty-ꞽwĠpꜣĠwꜣḥ-sḥnĠn",
  "7211": "ĠmtwĠ=fĠḏdĠnĠ=yĠwꜣḥĠrĠmd.tĠnbĠnty-ꞽwĠ=yĠšnĠẖr.ꞽrĠ=wĠdyĠnĠpꜣ-hrw",
  "7212": "Ġsḫt.ṱ",
  "7213": "Ġḥtp.tĠm-sꜣ",
  "7214": "Ġwsꞽr-",
  "7215": "Ġpꜣ-byk",
  "7216": "-myĠpꜣ",
  "7217": "(.t-n-)",
  "7218": "Ġyꜥby",
  "7219": "ĠpꜣĠrmṯĠ(n-)rnĠ=f",
  "7220": "ĠtwĠ=wĠs",
  "7221": "ĠtꜣĠmtr",
  "7222": "ĠsꜣĠpa-mnṱ",
  "7223": "Ġḫnšṱ",
  "7224": "-ny.t",
  "7225": "-ḥꜣ.t-n",
  "7226": "ĠpꜣyĠbꜣk",
  "7227": "-ḏr.tĠ=yĠnĠpꜣ-hrw",
  "7228": "ĠšmĠrĠpꜣ",
  "7229": "Ġmd(.t)ĠnbĠnty-nb",
  "7230": "Ġmd(.t)ĠnbĠnty-nbĠnĠpꜣĠtꜣ",
  "7231": "-rnĠ=wĠn",
  "7232": "Ġꜥn-smyĠn.ꞽmĠ=s",
  "7233": "ĠnꜣĠtw",
  "7234": "ĠḫpryĠn",
  "7235": "ĠmyĠꞽrĠ=f",
  "7236": "Ġr.ꞽrĠ=y",
  "7237": "-n-py",
  "7238": "ĠmtwĠ=fĠḏd",
  "7239": "ĠrĠpꜣĠꞽtn",
  "7240": "ĠhyĠnhs",
  "7241": "Ġdwꜣe",
  "7242": "ĠpꜣĠꜣḥĠn",
  "7243": "ĠtꜣyĠ=fĠs.t-n-ḥ.t-nṯr",
  "7244": "Ġbẖ",
  "7245": "ĠꜥyĠ=kĠn",
  "7246": "ĠꞽrĠ=wĠkꜣ",
  "7247": "ĠꞽwĠtꜣyĠ=f",
  "7248": "ĠꜥršĠnĠꞽmn",
  "7249": "Ġm-bꜣḥĠ=t",
  "7250": "eĠ=f",
  "7251": "Ġnty-nꜣ-ꜥn",
  "7252": "-md.t-nfr.t",
  "7253": "ĠšmĠ=t",
  "7254": "ĠmtwĠ=fĠn",
  "7255": "ĠꞽwĠ=fĠtm",
  "7256": "Ġta-nꜣ-wr.w-ꜥwĠtaĠḥr-tꜣy=f-nḫṱ",
  "7257": "Ġta-nꜣ-wr.w-ꜥwĠtaĠḥr-tꜣy=f-nḫṱ.tĠmw.tĠ=sĠta-tw-tꜣ",
  "7258": "Ġrnn.tĠn",
  "7259": "ĠḫprĠn.ꞽmĠ=f",
  "7260": "ĠmyĠmwĠ(r)",
  "7261": "ĠḏdĠnĠꞽrp",
  "7262": "ĠsmꜣꜥĠr",
  "7263": "Ġꜥrḏ",
  "7264": "-ꞽh̭y",
  "7265": "ĠpꜣĠšmĠnĠwnš-kwf",
  "7266": "Ġpꜣ-tꜣ-rsy",
  "7267": "Ġꞽmn-rꜥ-nsw-nṯr.w",
  "7268": "ĠnĠpꜣĠẖ",
  "7269": "Ġpa-tꜣ.wy",
  "7270": "Ġꞽ.ꞽrĠ=kĠꞽn-nꜥ.k",
  "7271": "Ġdny(.t)",
  "7272": "Ġh(y)",
  "7273": "ĠrĠmr",
  "7274": "ĠpꜣĠḥm-nṯr-(n-)ḥ.t",
  "7275": "ĠpꜣĠḥm-nṯr-(n-)ḥ.t-ḥr",
  "7276": "Ġḥm-nṯr-(n-)ꜣs.t",
  "7277": "Ġ(n)Ġpr",
  "7278": "ĠmyĠmwĠrĠḥtp",
  "7279": "ĠwsꞽrĠpꜣĠnṯr-ꜥꜣ",
  "7280": "Ġdy.tĠꜥḥꜥ",
  "7281": "Ġby-(n-)ḥp-wsꞽrĠsḏm-ꜥš-(n-)ḥp-ꜥnḫ",
  "7282": "Ġḥm-sw=f",
  "7283": "synĠꜥnḫ-wḏꜣ-snb",
  "7284": "ĠnꜣĠꞽrpy.w",
  "7285": ".ṱĠ=fĠnĠnꜣyĠ=f",
  "7286": "Ġpꜣ-šr-ꜣs.t",
  "7287": "(.t)-n-ḥr",
  "7288": "Ġsꜣ.tĠnĠwꜣḥ-mw-n-tꜣ-ꞽn(.t)",
  "7289": "Ġns-mnĠmw.tĠ=s",
  "7290": "Ġnb.t-wr",
  "7291": "Ġnb.t-wrḫ",
  "7292": "-(n-)k",
  "7293": "ĠpꜣĠꜥl",
  "7294": "ĠḥnꜥĠtꜣĠdny.tĠ1/4ĠnĠnꜣ",
  "7295": "-mꜣꜥ.tĠn-wš-nĠmd.t-n-ꜥḏe",
  "7296": "-ššn",
  "7297": "-ššnqy",
  "7298": "-ššnqyĠsꜣĠṯꜣy-nfr",
  "7299": "Ġpa-ẖnm",
  "7300": "Ġꜣnṱ",
  "7301": "Ġḥr-bḥttĠnṯr-ꜥꜣĠnb-p.t",
  "7302": "-n-nṯr",
  "7303": "=f-ꜥw",
  "7304": "-qn-nꜥ",
  "7305": "ĠrĠtꜣĠwḏ",
  "7306": "Ġwty",
  "7307": "ĠpꜣyĠ(=y)Ġꞽt",
  "7308": "Ġꞽw-ꞽwĠ=k",
  "7309": "Ġqde",
  "7310": "-ꞽ.ꞽr-ḥr",
  "7311": "ĠꞽrĠnb.t-prĠta-wꜣ",
  "7312": "Ġꜥ.wyĠpꜣĠnṯr",
  "7313": "ĠnĠ=kĠmwĠn",
  "7314": "ĠšrĠšr.t",
  "7315": "Ġḥp-mnĠsꜣĠꜥnḫ-ḥp",
  "7316": "Ġmr-kꜣ.t",
  "7317": "ĠꞽmnĠpꜣ",
  "7318": "ĠnꜣĠꜣḥ(.w)Ġn",
  "7319": "Ġtp=f",
  "7320": "Ġr.rĠ=fĠr",
  "7321": "Ġpḥ-nṯr",
  "7322": "ĠmtwĠ=kĠꞽr",
  "7323": "ĠwꜥĠsẖ",
  "7324": "ĠtwĠ=yĠdbḥĠn.ꞽmĠ=s",
  "7325": "Ġ(n-)ḏr.ṱĠ=k",
  "7326": "ĠpꜣĠḥry-m",
  "7327": "Ġsmṱ",
  "7328": "Ġtꜣ-šr.t-(n-)pꜣ",
  "7329": "ĠsẖĠꞽ.ꞽryĠmd(.t)ĠnbĠnty-ḥry",
  "7330": "ĠmtwĠ=fĠḫprĠẖnĠnꜣĠḥs.wĠn",
  "7331": "ĠmtwĠ=fĠḫprĠẖnĠnꜣĠḥs.wĠnĠwsꞽr",
  "7332": "tĠ=w",
  "7333": "ĠtwĠ=yĠꞽr-rḫ",
  "7334": "ĠẖnĠnꜣĠḥs.w",
  "7335": "ĠpꜣĠꞽry-ꜥꜣ",
  "7336": "Ġ(r-)ꜥ.wy",
  "7337": "ĠsẖĠn",
  "7338": "Ġnty-ꞽwĠ=fĠ(r)Ġḫpr",
  "7339": "Ġḫtmw-nṯrĠwytĠsbk-ḥtp",
  "7340": "ĠsꜣĠpa-sy",
  "7341": "Ġsẖ-mḏy-nṯr",
  "7342": "Ġ=fĠr-ḥr",
  "7343": "ĠrĠrsy",
  "7344": "ĠḏdĠpꜣ-dy-ꜣs.t",
  "7345": "ĠsꜣĠns-pꜣ-mtr",
  "7346": "ĠꞽwĠwsꞽr",
  "7347": "Ġmw.ṱĠ=f",
  "7348": "Ġgtg",
  "7349": "-mt(r)",
  "7350": "Ġꞽ.ꞽrĠ=kĠdy.tĠꞽrĠ=fĠwn",
  "7351": "ĠpꜣyĠ=kĠwḏꜣ",
  "7352": "ĠꞽnpĠḫnṱ",
  "7353": "ĠꞽnpĠḫnṱĠsyḥ",
  "7354": "ĠꞽnpĠḫnṱĠsyḥ-nṯr",
  "7355": "ĠtaĠpꜣ-dy-wp(y)",
  "7356": "Ġmḥ-4",
  "7357": "-ẖe.t",
  "7358": "Ġqs.w",
  "7359": "ĠmyĠnw",
  "7360": "Ġḥr-rꜣ",
  "7361": "Ġm-ꞽrĠꞽr",
  "7362": "Ġbnn.t",
  "7363": "Ġpsy",
  "7364": "-ḫpr=f",
  "7365": "Ġgmꜥ",
  "7366": "Ġnꜥš",
  "7367": "Ġꞽw.ꞽw.w",
  "7368": "ĠpꜣyĠpꜣyĠ=(y)ĠrnĠnĠmtr",
  "7369": "Ġsꜣ.tĠnĠḫtmw-nṯrĠwyt",
  "7370": "ĠꜥšĠ=y",
  "7371": "ĠḏdĠnĠ=yĠwꜣḥ",
  "7372": "-ḥr-pꜣ-hb",
  "7373": "Ġkys",
  "7374": "Ġhrg",
  "7375": "ĠmtwĠ=kĠmr",
  "7376": "Ġmr-mšꜥ",
  "7377": "Ġ(sꜣ)Ġnḫṱ-sbk",
  "7378": "Ġꜣḏ",
  "7379": "Ġmlẖ",
  "7380": "ĠpꜣyĠpr",
  "7381": "Ġpa-tw",
  "7382": "Ġswg",
  "7383": "Ġḫr-ꞽrĠ=k",
  "7384": "Ġpꜣ-šr-wsꞽr",
  "7385": "ĠtꜣĠmr-ꞽt.ṱ=s",
  "7386": "Ġsꜣ(.t)",
  "7387": "-ḏḥwty-ꞽw=f-ꜥnḫ",
  "7388": "-mw.t=f",
  "7389": "ĠnꜣĠby.w",
  "7390": "Ġrse",
  "7391": "ĠꞽwĠ=fĠꞽr-rḫ",
  "7392": "Ġm-šsĠsp-2",
  "7393": "ĠšspĠ=wĠṱĠ=tĠr",
  "7394": "Ġḫnsw-ꞽw",
  "7395": "Ġblḏ",
  "7396": "ĠmnĠ=t",
  "7397": "ĠꞽwĠ=wĠn",
  "7398": "Ġ(n)Ġgrḥ",
  "7399": ".ꞽmĠ=s",
  "7400": "ĠtwĠ=k",
  "7401": "Ġpḥw",
  "7402": "ĠpꜣĠẖy",
  "7403": "Ġm-sẖĠꞽt-nṯr",
  "7404": "ĠbꜣkĠbꜣk.t",
  "7405": "ĠꞽĠꜥnḫĠ=s",
  "7406": "Ġr-ẖ.t",
  "7407": "Ġḥr-tb",
  "7408": "ĠpꜣĠḥm-nṯr-(n-)wsꞽr",
  "7409": "ĠꞽwĠ=yĠrĠšꜥš",
  "7410": "Ġpr-ꞽw-wꜥb",
  "7411": "Ġꞽhy",
  "7412": "ĠmtwĠ=fĠṯꜣyĠmw",
  "7413": ".yĠ=fĠrĠwꜥ",
  "7414": "Ġmd.t.w",
  "7415": "Ġ=fĠꞽwĠ=w",
  "7416": "Ġ(sꜣ)Ġpꜣ",
  "7417": "ĠnꜣĠnṯr.w-mnḫ.w",
  "7418": "-ꞽwĠ=w",
  "7419": "ĠꞽrmĠnꜣyĠ(=y)",
  "7420": "Ġꞽ.ꞽr-ḥrĠ=t",
  "7421": "ĠtꜣĠpš.tĠn",
  "7422": "-(n-)sꜥnḫ",
  "7423": "ĠḏdĠnĠ=w",
  "7424": "Ġwꜣḥ-sḥn",
  "7425": "Ġrwḥ",
  "7426": "sĠnĠwꜥb",
  "7427": "-kh",
  "7428": "ĠnĠpꜣ-dy-ꜣs.t",
  "7429": "ĠmtwĠ=nĠdy.t",
  "7430": "ĠpꜣĠḏmꜥ",
  "7431": "Ġwsh̭ꜣ.tĠn",
  "7432": "Ġ(n)Ġfy(.t)-tn-nbĠm-bꜣḥĠꜣr",
  "7433": "Ġ(n-)rnĠ=fĠr",
  "7434": "ĠnꜣyĠwꜥb.w",
  "7435": "Ġqw",
  "7436": "ĠmnĠḏꜣ",
  "7437": "Ġbw-ꞽrĠrmṯ",
  "7438": "ĠšspĠnĠ=f",
  "7439": "-5ĠnĠpꜣĠḥtp-nṯr",
  "7440": "-ꞽyĠn.ꞽmĠ=w",
  "7441": "ĠntyĠpḥ",
  "7442": "Ġbn-ꞽwĠꞽr",
  "7443": "ĠtꜣyĠ=n",
  "7444": "ĠpꜣĠgyĠn",
  "7445": "Ġ(w)di̯",
  "7446": "Ġkꜣ(.PL)Ġꜣpd(.PL)",
  "7447": "Ġwꜣḥ-ꞽb",
  "7448": "ĠpnĠꞽm(.ꞽ)",
  "7449": "zz.t",
  "7450": "Ġḏnḥ",
  "7451": "ĠsnḏĠ=f",
  "7452": ".yw.PL",
  "7453": "Ġḥꜥi̯",
  "7454": "ĠnĠ=fĠnꜣ",
  "7455": "Ġḏḥwtꞽ",
  "7456": "Ġpsḏ.t-ꜥꜣ.t",
  "7457": "Ġšnw.tĠꞽt",
  "7458": "Ġnfr(.t)",
  "7459": "Ġḏ(d)-mdwĠꞽw",
  "7460": "-nṯr-mn",
  "7461": "-nṯr-mn-ꜥnḫ-nfr-kꜣ-rꜥw",
  "7462": "Ġḥr.ꞽ-tp-ꜥꜣ-(n-)tꜣ-wr",
  "7463": "-šnw.tꞽ",
  "7464": "Ġnd",
  "7465": "Ġt(w)t",
  "7466": ".wĠꞽr",
  "7467": "Ġ(ꞽ)r(.ꞽ)-pꜥ(.t)Ġḥꜣ.t(ꞽ)-ꜥ",
  "7468": "i̯.nĠ=fĠnĠ=kĠsw",
  "7469": "Ġtꜣ-ḏsr",
  "7470": "Ġꞽnp(.w)",
  "7471": ".wĠẖr",
  "7472": "Ġwr.PL-n",
  "7473": "ĠnĠ=ṯn(ꞽ)",
  "7474": "ĠbꜣĠ=ꞽ",
  "7475": ".ytĠ=f",
  "7476": "(.w)t",
  "7477": "Ġgmi̯.nĠ=f",
  "7478": "Ġꞽdn.w",
  "7479": "Ġnb.tĠn.t",
  "7480": "Ġnn.t",
  "7481": "Ġ(ꞽ)ḫ.tĠnb(.t)Ġnfr.t",
  "7482": "i̯.nĠsw",
  "7483": "ĠzꜣĠ=kĠḥr.w",
  "7484": "-mrr",
  "7485": "Ġzbi̯",
  "7486": "Ġšty.t",
  "7487": "Ġꞽm.(ꞽ)",
  "7488": "ĠmĠš",
  "7489": "Ġḫꜣs.tꞽ",
  "7490": "ĠpnĠmꞽ",
  "7491": "Ġmꜣꜥ-ḫrwĠꞽri̯.n",
  "7492": "yĠm",
  "7493": "Ġzꜣ-nswtĠḏḏ=f-ḥr",
  "7494": "ĠꞽĠ(ꞽ)tyĠꜥnḫ-(w)ḏꜣ-s(nb)Ġnb",
  "7495": "Ġsbḥ",
  "7496": "Ġꞽꜣ.wĠnĠwsꞽr",
  "7497": "Ġ=kĠrꜥw",
  "7498": "Ġꞽr.t.ꞽ",
  "7499": "Ġẖnm.t-wr.t",
  "7500": "Ġ=kĠꞽmĠ=sĠm",
  "7501": "Ġmꞽ-qd",
  "7502": "ĠrnĠ(m",
  "7503": "ĠrnĠ(mꜣ)",
  "7504": "ĠrnĠ(mꜣ)-ḥḏ",
  "7505": "Ġst(ꞽ)",
  "7506": "Ġmꜣꜣ(.t)-ḥr.w",
  "7507": "Ġḥtp-ḥr-nb.tꞽ",
  "7508": "Ġrḏi̯ĠnĠ=f",
  "7509": "Ġhnn",
  "7510": "Ġnbw.t",
  "7511": "Ġs(ꜣ)",
  "7512": "ĠsqrĠm",
  "7513": "Ġꞽm.ꞽ.t",
  "7514": ".nĠ=kĠꞽr.t",
  "7515": "sb",
  "7516": "Ġ(mꜣ",
  "7517": "Ġ(mꜣ-)",
  "7518": "Ġ(mꜣ-)ḥḏ",
  "7519": "n.PL",
  "7520": "Ġnꞽs",
  "7521": "ĠhꜣĠppy",
  "7522": "ĠtꜣĠr-ḏrĠ=f",
  "7523": "ĠwnꞽsĠpw",
  "7524": "Ġꞽm.tĠḥꜣ.t",
  "7525": "Ġm-ẖn.w",
  "7526": "-ẖn.w",
  "7527": "Ġbd",
  "7528": "Ġꞽm.tĠꞽwn.w",
  "7529": "Ġtꜣ.tꞽ-zꜣb-ṯꜣ.tꞽĠ(ꞽ)m(.ꞽ)-rʾ",
  "7530": "Ġdi̯(.w)",
  "7531": "Ġ=snĠḫft",
  "7532": "ĠpẖrĠn",
  "7533": "Ġ=fĠḥr.wĠꜥḥꜣ",
  "7534": "-n-wsr.t",
  "7535": "ĠzꜣĠnw.t",
  "7536": "Ġtmꜣ",
  "7537": "Ġtkꜣ",
  "7538": "ĠꞽsĠn",
  "7539": "Ġꞽr(.ꞽ).w",
  "7540": "ĠnĠrḫ.n",
  "7541": "Ġšww",
  "7542": "ĠnnĠn",
  "7543": "Ġḥr-qd",
  "7544": "Ġdš",
  "7545": ".PLĠ=kĠm",
  "7546": "Ġpri̯.tĠm",
  "7547": "nbn",
  "7548": "Ġꞽn.wĠšmꜥ",
  "7549": "ĠmĠsꜥḥ",
  "7550": "Ġẖr.t-hrw",
  "7551": "Ġsfn",
  "7552": "Ġz(my.)tĠꞽmn.t(ꞽ).t",
  "7553": "Ġḥr.wĠḫrĠ=kĠmĠrnĠ=kĠn(.ꞽ)",
  "7554": "ĠpwĠp(w)-nnĠ(w)sꞽrĠḏi̯.n",
  "7555": "Ġpn-m",
  "7556": "Ġpn-mrw",
  "7557": "Ġḫnt(.ꞽ)-ꞽmn.tw",
  "7558": "Ġḥri̯.t(ꞽ)",
  "7559": "ĠꞽrĠgmi̯Ġ=k",
  "7560": "r.wĠn",
  "7561": "ĠꞽbĠn(.ꞽ)Ġstš",
  "7562": "Ġꞽnp.wĠḫnt(.ꞽ)-tꜣ-ḏsr",
  "7563": "Ġwpꞽ.w",
  "7564": "pḏ",
  "7565": "Ġrnp.t.PL",
  "7566": "-kꜣ=s",
  "7567": "yĠnn",
  "7568": "Ġsft",
  "7569": "Ġz(my).t",
  "7570": "Ġstꞽ",
  "7571": "ĠḥmwĠn",
  "7572": "Ġḫꜣy",
  "7573": "Ġ(ꞽ)m(.ꞽ)-rʾ-zẖꜣ.w(w)-ꜥ-n-nswtĠsšm-nfr",
  "7574": "ĠsṯĠṯw",
  "7575": "ĠsṯĠsw",
  "7576": "Ġꞽr.t.DUĠ=k",
  "7577": "ĠḥtpĠ=kĠm",
  "7578": "Ġꞽmꜣḫ.w-ḫr-ptḥ",
  "7579": "Ġmr.y-ꞽb",
  "7580": "Ġšdi̯.tĠꞽzĠkꜣĠrḫ.yt",
  "7581": "Ġpsi̯",
  "7582": "ĠwꜥbĠkꜣĠ=k",
  "7583": "Ġbnꞽ",
  "7584": "Ġbꞽꜣ(.ꞽ)",
  "7585": "Ġꜣḫ.PLĠ=snĠꞽsṯ",
  "7586": "Ġšmꜥ(.wꞽ)",
  "7587": "-wnꞽs",
  "7588": "m.tw",
  "7589": "Ġꞽ:z",
  "7590": "ĠrwḏĠmḥrĠpnĠn(.ꞽ)",
  "7591": "ĠrwḏĠmḥrĠpnĠn(.ꞽ)ĠppyĠnfr-kꜣ-rꜥw",
  "7592": "Ġsnm.tĠꜣḫ",
  "7593": "Ġḥr.wĠꜥḥꜣĠḥr.wĠꜥḥꜣ",
  "7594": "Ġḥn.wt=sn",
  "7595": "Ġꜥ.t.PLĠ=k",
  "7596": "-mrĠn",
  "7597": "Ġꞽ:ḫrĠzbn",
  "7598": "(.t.ꞽ)",
  "7599": "ĠḥnꜥĠkꜣ",
  "7600": "Ġ=fĠnḏr",
  "7601": "Ġprꞽ.w",
  "7602": "Ġꜥḥꜥ.nĠrḏi̯.nĠ=f",
  "7603": "ĠpꜣĠš",
  "7604": "Ġdwn-ꜥn.w",
  "7605": "Ġdwn-ꜥn.wꞽ",
  "7606": "ḏḥ.w",
  "7607": "Ġḥtꞽ",
  "7608": "Ġꜥr.t",
  "7609": "zwĠn",
  "7610": "Ġwn-mꜣꜥ",
  "7611": "ĠtʾĠḥnq.tĠḫꜣ",
  "7612": "Ġḥm-nṯr-ḫwi̯=f-w(ꞽ)",
  "7613": "i̯.tꞽĠm",
  "7614": "Ġḥr.ꞽ-sštꜣ(-n)",
  "7615": "Ġḥr.ꞽ-sštꜣ(-n)-ḫtm.t",
  "7616": "Ġ=kĠm-ꜥ",
  "7617": "Ġḥr.wĠnḏ",
  "7618": "Ġꞽri̯.t.nĠstš",
  "7619": "ĠnṯrĠꞽw",
  "7620": "Ġrꜥ(w)",
  "7621": "Ġmtn",
  "7622": "ĠꞽrĠḫꜣi̯Ġ=kĠzĠn(.ꞽ)Ġwbn.wĠm",
  "7623": "Ġḥtp-ḏꞽĠnswtĠḥtp-ḏꞽĠwsꞽr",
  "7624": "Ġḥkꜣ(.w)",
  "7625": "Ġn(.ꞽ)Ġḥr.w",
  "7626": "Ġẖ.tĠ=ꞽ",
  "7627": "Ġsꜣꜣ",
  "7628": "Ġ=fĠrʾ",
  "7629": "Ġẖr.ꞽ-ḥ(ꜣ)b.t",
  "7630": "ĠmĠrʾĠn(.ꞽ)",
  "7631": "Ġḥzi̯",
  "7632": "Ġsštꜣ",
  "7633": "Ġbnꞽ.t",
  "7634": "Ġꞽp.t",
  "7635": "Ġḥꜣ.ttĠn.ꞽ.t",
  "7636": "Ġwpw.tꞽ",
  "7637": "Ġ(ꞽ)m(.ꞽ)-rʾ-mnn.ww",
  "7638": "Ġ(ꞽ)m(.ꞽ)-rʾ-nswt",
  "7639": "Ġ(ꞽ)m(.ꞽ)-rʾ-nswt.w",
  "7640": "Ġsšm-tꜣ",
  "7641": "Ġḥqꜣ-ḥw.t-ꜥꜣ.t",
  "7642": "Ġꞽrṯ.t",
  "7643": "ĠsmrĠḫrp-ꜥḥ",
  "7644": "Ġnṯr.DU",
  "7645": "ĠwꜥĠꞽm",
  "7646": ".nĠ=fĠꞽm",
  "7647": "wrw",
  "7648": "ĠrnĠ=sĠpwĠn(.ꞽ)",
  "7649": "Ġnfr(.w)",
  "7650": "Ġꞽꜣw(.t)",
  "7651": "Ġ=fĠms",
  "7652": "Ġꞽri̯Ġ=s",
  "7653": ".w.PLĠ=ꞽ",
  "7654": "ĠgmmĠ=kĠtḫb",
  "7655": "Ġ=fĠtp",
  "7656": "Ġhꞽ.w",
  "7657": "-nb(.t)-n.t-nswt",
  "7658": "Ġ(ꞽ)r(.ꞽt-ꞽ)ḫ(.t)-nswtĠḫntꞽ",
  "7659": "Ġḥtp(.w)",
  "7660": "Ġḥm-nṯr-ꞽnp.w-zḥ",
  "7661": "Ġḥm-nṯr-ꞽnp.w-zḥ-nṯr-w",
  "7662": "Ġḥm-nṯr-ꞽnp.w-zḥ-nṯr-wꜣḏ.t",
  "7663": "-sms.w",
  "7664": ".wĠnḥ",
  "7665": "Ġ=fĠwnm",
  "7666": "ĠppyĠnfr-kꜣ-rꜥwĠꞽm",
  "7667": "Ġm-ꜥĠ=f",
  "7668": "Ġtp.ꞽ-ḥꜣ.tĠꜥḏ",
  "7669": "Ġḥtp-n.t",
  "7670": "ĠdwꜣĠnṯr",
  "7671": "Ġḫnt.ꞽ-ꞽmn.tw",
  "7672": "ĠkyĠsp",
  "7673": "ĠhꜣĠwnꞽsĠꜥ",
  "7674": "Ġsn.w.PLĠ=f",
  "7675": "ĠwsꞽrĠnb-ḏd.wĠnṯr-ꜥꜣ",
  "7676": "Ġsbꜣ.PL",
  "7677": "ĠꞽwĠmꞽ",
  "7678": "Ġnb-q",
  "7679": "ĠtʾĠ=kĠm",
  "7680": "Ġšni̯Ġ=kĠnĠ=k",
  "7681": "Ġm-ẖnwĠꜥ.DU",
  "7682": "ĠpnĠm",
  "7683": "Ġꞽws.w",
  "7684": "Ġzp.t",
  "7685": "Ġꞽmꜣḫ.w-ḫr-ꞽnp.w",
  "7686": "dšr",
  "7687": "ĠḫrĠkꜣ",
  "7688": "Ġḥꜣb-wrĠrkḥ",
  "7689": "Ġḫw-ꜥ",
  "7690": "ĠmĠẖr-nṯr",
  "7691": "ĠꞽnĠnṯr",
  "7692": "w-ꞽmn",
  "7693": "Ġ=fĠmdw",
  "7694": "Ġ=kĠm-bꜣḥĠ=f",
  "7695": "-ꞽm(.ꞽ)",
  "7696": "ĠtʾĠḥ(n)q.tĠꞽḥ.PL",
  "7697": "Ġsp.t.DU",
  "7698": "Ġ=fĠm(w)t",
  "7699": "Ġꞽ:mzĠkw",
  "7700": ".PLĠ=snĠn",
  "7701": "ĠḥrĠ=ꞽ",
  "7702": "mĠr",
  "7703": "ĠḥrĠgsĠ=k",
  "7704": "Ġꞽꜣb(.ꞽ)",
  "7705": "ĠꜥḥꜥĠ=fĠn",
  "7706": "Ġꞽmꜣḫ.wĠḫr",
  "7707": "Ġꞽnp.w-ḥtp.w",
  "7708": "Ġmrḥ(.t)ĠꜣpdĠdšr",
  "7709": "Ġ(w)sr(.w)Ġn(ꞽ).tĠmꞽĠnĠ=k",
  "7710": "Ġsꜣi̯",
  "7711": "Ġpšš.nĠs(ꞽ)Ġmʾw.tĠ=kĠnw.t",
  "7712": "-ꞽḫ.t",
  "7713": "Ġẖr(.ꞽ)-tp-nswt-pr-ꜥꜣ",
  "7714": "Ġrʾ.PL",
  "7715": "Ġgstꞽ",
  "7716": "Ġḥm.tĠm",
  "7717": "Ġmr.y-nb=fĠmr",
  "7718": "Ġmr.y-nb=fĠmrr.w-nb=f",
  "7719": "Ġwt.ꞽ-ꞽnp.w",
  "7720": "Ġḥm-nṯr-n.ꞽ",
  "7721": "Ġḥm-nṯr-n.ꞽ-ws",
  "7722": "r-rꜥw",
  "7723": "fr-bꜣ.w-ptḥ",
  "7724": "Ġḥm.tĠ=fĠmr.(y)tĠ=f",
  "7725": "(w).tĠ=f",
  "7726": "Ġhnqw",
  "7727": "Ġtwꜣ.wt",
  "7728": "Ġḫtm.w-nṯr-wꞽꜣĠmr-ꞽb",
  "7729": ".wꞽ.DUĠn(.ꞽ)Ġḥbs",
  "7730": "ĠwnĠnĠ=kĠꜥꜣ.DUĠp.t",
  "7731": "ĠḥmĠn",
  "7732": "Ġḫnf.t",
  "7733": "Ġṯn(ꞽ)",
  "7734": "Ġḫnm",
  "7735": "Ġwdi̯.ḫrĠ=k",
  "7736": "-pr-mḏꜣ.t",
  "7737": "Ġḫrp-š",
  "7738": "-ẖnw",
  "7739": "ĠꞽmĠ=sĠn",
  "7740": "ꜣ.tĠm",
  "7741": "ĠsnĠm",
  "7742": "Ġqrs.t(ꞽ)Ġ=fĠmĠẖr-nṯr",
  "7743": "Ġmr.w-kꜣ",
  "7744": "Ġꜥ.wꞽ.DU",
  "7745": "Ġḥmsi̯.t",
  "7746": "-dwꜣ.w",
  "7747": "ĠmĠḥtpĠḥrĠwꜣ.t.PLĠnfr.(w)t",
  "7748": "ĠꞽwĠꜣs.t",
  "7749": "Ġmrw.tĠ=k",
  "7750": "Ġꞽyi̯.nĠwnꞽs",
  "7751": "-ꜥḥꜣ",
  "7752": "ḫbḫb",
  "7753": "Ġḥr.wĠrꜥw-nb",
  "7754": "Ġḥr.wĠsḫm-ẖ.t",
  "7755": "ĠḫrĠ=ṯ",
  "7756": "Ġḥtp-ḏi̯-nswtĠwsꞽr",
  "7757": "-sḫm.wꞽ",
  "7758": "Ġꞽyi̯Ġm",
  "7759": "ĠmnĠ=fĠṯ",
  "7760": "ĠmnĠ=fĠṯs.wĠm",
  "7761": "Ġnḏ.t-ḥr",
  "7762": "Ġpt(r)",
  "7763": "ĠwšdĠ=f",
  "7764": "ĠmĠtꜣĠpn",
  "7765": "Ġsr.t",
  "7766": "Ġ=kĠmĠz",
  "7767": "Ġmnḏ",
  "7768": "Ġspꜣ",
  "7769": "ĠmĠrʾĠn",
  "7770": "Ġḏsw",
  "7771": "Ġnḥb.w",
  "7772": "Ġꞽni̯(.t)",
  "7773": "Ġꞽw.tw",
  "7774": "-ḥw.wt",
  "7775": "Ġp.tĠmr",
  "7776": "Ġꜥḥꜥ.nĠḏd.nĠ=fĠn",
  "7777": "ĠtʾĠn",
  "7778": "Ġḫti̯",
  "7779": ".tĠn.tĠn",
  "7780": "ĠzꞽĠḥr.wĠḥnꜥĠkꜣĠ=f",
  "7781": "ĠkꜣĠ=kĠm-bꜣḥĠ=k",
  "7782": "ĠḥsĠn",
  "7783": "Ġ(ꞽ)m(.ꞽ)-rʾ-zẖꜣ.w(w)-ꜥ-(n-)nswtĠḥr.ꞽ-sštꜣ",
  "7784": "ĠꞽwĠ=fĠmn",
  "7785": "Ġḏb",
  "7786": "Ġsnṯ(r)",
  "7787": "Ġḥ(ꜣ)bĠnbĠrꜥw-nb",
  "7788": "Ġmḥ.n",
  "7789": "ĠṯwtĠwrĠꞽm(.ꞽ)Ġms.wĠ=s",
  "7790": "ĠstšĠrḏ",
  "7791": "-sšr.w",
  "7792": "ĠḥtpĠm",
  "7793": "Ġzḫz",
  "7794": "Ġṯnt.tꞽ",
  "7795": "ĠnbĠnfr",
  "7796": "wĠꞽn",
  "7797": "Ġrḫs",
  "7798": "Ġsmn.t",
  "7799": "-wsr-kꜣ",
  "7800": "-wsr-kꜣ=f",
  "7801": "Ġzm",
  "7802": "šĠ=f",
  "7803": "Ġmr.t-ꞽtꞽ=s",
  "7804": "Ġḥm(.t)-kꜣ",
  "7805": "Ġꞽm(.ꞽ)Ġꜣḫ.PL",
  "7806": "Ġꞽri̯ĠnĠ=k",
  "7807": ".tꞽw.PL",
  "7808": "Ġ=fĠsꜣ",
  "7809": "Ġꞽmꜣḫ.wĠnfr-",
  "7810": "Ġḥ(w)i̯",
  "7811": "Ġsḥtm",
  "7812": "Ġrw.t",
  "7813": "ĠpwĠn(.ꞽ)Ġꞽd.t",
  "7814": "Ġn.ꞽ-ꜥnḫ-rꜥw",
  "7815": "ĠrĠ=sn",
  "7816": "-ꜥnḫ-ttꞽ",
  "7817": "ĠzĠpf",
  "7818": "Ġwr-mꜣ",
  "7819": "ĠnĠ=ṯ",
  "7820": ".nĠttꞽ",
  "7821": "Ġḫsf.w",
  "7822": "Ġm(w)tĠ=fĠnĠm(w)tĠwnꞽsĠpn",
  "7823": "Ġḥ(ꜣ)",
  "7824": "Ġḥsq",
  "7825": "Ġkꜣ=ꞽ",
  "7826": "Ġmꞽtr",
  "7827": "Ġkꜣ(=ꞽ)-n.ꞽ-nswt",
  "7828": "ĠqdĠ=k",
  "7829": "Ġpri̯.wĠḫrĠzꜣĠ=kĠpri̯.wĠḫrĠḥr.w",
  "7830": "-n.t-ẖ.t=f",
  "7831": "-m-ꜥ",
  "7832": "Ġšnt",
  "7833": "Ġdgm",
  "7834": "Ġꞽri̯.wĠnꞽ",
  "7835": "ĠhꜣĠwnꞽsĠrd",
  "7836": "Ġ(ꞽ)m(.ꞽ)-rʾ-pr-ꜥ",
  "7837": "ĠꞽwĠqsn",
  "7838": "ĠmnwĠm",
  "7839": "ḏꜣ.t",
  "7840": "Ġpr(.t)-ḫrw",
  "7841": "Ġn.ꞽ.t",
  "7842": "ĠnḥmĠ=f",
  "7843": "Ġḫm.t",
  "7844": "Ġ(ꞽ)wꜥ",
  "7845": "Ġstt",
  "7846": "Ġḫr.tĠ=k",
  "7847": "Ġꞽ:š",
  "7848": "Ġꞽꜣw.t.PL",
  "7849": "Ġꞽ:nḏĠṯw",
  "7850": "Ġsn.t.DUĠ=k",
  "7851": "Ġwꜥr.t",
  "7852": "Ġwp-wꜣ.t.PL",
  "7853": "ĠppyĠnfr-kꜣ-rꜥwĠḥnꜥ",
  "7854": "Ġḫprr",
  "7855": "-nḏm",
  "7856": "Ġḏꜥr.ḫrĠ=kĠwbn.wĠ=f",
  "7857": "Ġḥsꜣ",
  "7858": "Ġzꜣb-sḥḏ-zẖꜣ.ww",
  "7859": "ꜣ.wĠm",
  "7860": "Ġ(ꞽ)m(.ꞽ)-ḫt-ḥm(.w)-kꜣ",
  "7861": "Ġn(.ꞽ)Ġp.t",
  "7862": "Ġstp-zꜣ",
  "7863": "Ġṯꞽ",
  "7864": "Ġ=sĠrĠpꜣ",
  "7865": "Ġꞽri̯.tw",
  "7866": "Ġꞽb(ꜣ)",
  "7867": "ĠrnĠgḥs",
  "7868": "Ġštm",
  "7869": "ĠrnĠ=sĠn(.ꞽ)Ġš",
  "7870": "ḫr.t",
  "7871": "ḥn",
  "7872": "Ġ=kĠmĠ(ꞽ)tm(.w)",
  "7873": "(ꜣ)ṯ",
  "7874": "Ġbꜣk-ꞽm",
  "7875": "ꞽs.t",
  "7876": "ḫ(.t)-nswt",
  "7877": "Ġꞽꜣm-ꜥ",
  "7878": "Ġnʾ.t",
  "7879": "Ġḏfꜣ.w",
  "7880": "Ġḏ.tĠm",
  "7881": "Ġzẖꜣ.w-ḥw.t-nṯr",
  "7882": ".t.w",
  "7883": "Ġgmꜣ",
  "7884": "Ġḫtm(.w)",
  "7885": "f.w",
  "7886": "-sꜣḥ.w-rꜥw",
  "7887": "ĠꜥnḫĠwḏꜣĠsnb",
  "7888": ".nĠ=kĠn",
  "7889": "Ġmꜣꜥ-ḫrwĠnb-ꞽmꜣḫ",
  "7890": "ĠḫrĠnṯr",
  "7891": ".tꞽwĠm",
  "7892": "Ġr(m)t.PL",
  "7893": "Ġ(ꞽ)m(.ꞽ)-rʾ-zẖꜣ.ww",
  "7894": "ĠḫꜣĠtʾĠḫꜣ",
  "7895": "Ġn(ꞽ).tĠpn",
  "7896": "Ġꞽwi̯.w",
  "7897": "-mꞽ",
  "7898": "Ġ(ꞽ)r(.ꞽt-ꞽ)ḫ(.t)-nswtĠḫnt(ꞽ)",
  "7899": "Ġšrꞽ.t",
  "7900": "Ġsms.w-prĠmnꞽ",
  "7901": "Ġḥkꜣ.w",
  "7902": "ĠḥtpĠ=f",
  "7903": "ĠmĠrnĠ=f",
  "7904": "ĠꞽwfĠn",
  "7905": "Ġꞽr(.t)-ḥr(.w)",
  "7906": "ĠnĠšn",
  "7907": "Ġ(ꞽ)r(.ꞽ-ꞽ)ḫ(.t)-nswtĠ(ꞽ)m(.ꞽ)-rʾ",
  "7908": "Ġng",
  "7909": "-nꞽw.t",
  "7910": "ĠqbḥĠn",
  "7911": "ĠꜥꜣĠnb",
  "7912": "-ꞽbĠꞽwn.w",
  "7913": "ĠḥrĠpr.w",
  "7914": "Ġḥz.y",
  "7915": "Ġꜥḥ.w",
  "7916": "ĠwrĠr",
  "7917": "-stp",
  "7918": "Ġꜣbḫ",
  "7919": ".PLĠꞽr",
  "7920": "ts",
  "7921": "Ġḥbꜣ",
  "7922": "-ꜥꜣĠn",
  "7923": ".w.PLĠr",
  "7924": "(.t-n)",
  "7925": "ĠmḥĠ=k",
  "7926": "Ġmn.w",
  "7927": "Ġ=fĠẖ",
  "7928": "kĠn",
  "7929": "pn",
  "7930": "ĠtꜣĠꜥ",
  "7931": "ĠwꜣḥĠ=k",
  "7932": "ĠnꜣĠn",
  "7933": "Ġ=fĠrĠtꜣ",
  "7934": "ĠnĠst",
  "7935": "-šy",
  "7936": "ĠꞽnĠꞽwĠ=k",
  "7937": "-zp-2",
  "7938": "-bw~n~rʾ",
  "7939": "Ġwn.ꞽnĠ⸗s",
  "7940": "ĠnĠpꜣ-rꜥ-ḥr.w-ꜣḫ.tꞽ.DU",
  "7941": "Ġꞽ:ꞽri̯Ġ⸗ꞽ",
  "7942": "ĠnꜣĠrn",
  "7943": "ĠtꜣyĠ⸗st",
  "7944": "Ġzẖꜣ.w-nsw",
  "7945": "Ġḫꜣb",
  "7946": "Ġḫꜣrw",
  "7947": "ĠbnĠsw",
  "7948": "ĠsḏrĠḥr",
  "7949": "⸗k",
  "7950": "Ġsšs",
  "7951": "Ġ⸗kĠꞽwĠ⸗k",
  "7952": "Ġ⸗stĠḥr",
  "7953": "ĠbwĠꞽri̯Ġ⸗tw",
  "7954": "ĠḥrĠḏdĠnĠ⸗s",
  "7955": "Ġḥḏn",
  "7956": "ĠmꜣꜣĠ⸗k",
  "7957": "Ġstꜣ",
  "7958": ".ṱĠ⸗kĠm",
  "7959": "Ġꜥrꜥr",
  "7960": "Ġ⸗ꞽĠpꜣ",
  "7961": "ĠpꜣĠmr",
  "7962": "Ġrʾ~",
  "7963": "Ġmꜥ~šꜣ~",
  "7964": "~nꞽ",
  "7965": "Ġbt",
  "7966": "Ġgꜣ~wꜣ~",
  "7967": "ĠnꜣyĠ⸗w",
  "7968": ".tĠm-ꞽri̯",
  "7969": "ꜥꜣ~",
  "7970": "nwĠn",
  "7971": "ĠꞽbĠ⸗ꞽĠr",
  "7972": "ĠꞽwĠnꜣy",
  "7973": "ĠbwĠꞽri̯Ġ⸗k",
  "7974": "Ġm-ḏi̯Ġ⸗ꞽĠm",
  "7975": "Ġḥr.w-zꜣ-ꜣs.t",
  "7976": "Ġhrw.PLĠqn.w",
  "7977": "ĠsḏmĠ⸗w",
  "7978": "~šꜣ~",
  "7979": "Ġḏr.t.ṱĠ⸗k",
  "7980": "Ġ⸗kĠn",
  "7981": "Ġm-sšr",
  "7982": "r-mꜣꜥ.t-rꜥ",
  "7983": "Ġhꜣd",
  "7984": "-m-wꜣs.t-nfr-ḥtp",
  "7985": "Ġꞽr.ꞽ.PL",
  "7986": "ꞽ~mꜥ",
  "7987": "ĠtwĠ⸗ꞽ",
  "7988": "hꜣy",
  "7989": "ĠnĠ⸗sn",
  "7990": "Ġrd.DUĠ⸗f",
  "7991": "ꞽĠ⸗f",
  "7992": "ĠpꜣĠb",
  "7993": "Ġmḏꜣ",
  "7994": "Ġḥr-r",
  "7995": "Ġꞽ:ḏdĠnĠ⸗ꞽ",
  "7996": "ĠꞽryĠ⸗k",
  "7997": "Ġsfy",
  "7998": "Ġ⸗fĠnꜣ",
  "7999": "Ġmꜣꜥꞽ"
}